<unk>	0
<s>	0
</s>	0
<pad>	0
,	-3.09101
的	-3.20549
▁	-3.25957
。	-3.26365
和	-4.43795
▁—	-4.59571
在	-4.83663
、	-5.12054
了	-5.15521
是	-5.19212
(	-5.53451
对	-5.55215
将	-5.64938
年	-5.77088
中	-5.78386
“	-5.79701
)	-5.83342
而	-5.83929
不	-5.86342
美国	-5.89394
为	-5.91098
也	-5.95352
中国	-5.98716
有	-6.00735
人	-6.03117
与	-6.09761
▁但	-6.12497
政府	-6.1867
其	-6.21056
”	-6.23178
经济	-6.2377
上	-6.25865
但	-6.30373
会	-6.3112
被	-6.31736
地	-6.31959
国家	-6.33235
来	-6.341
大	-6.34786
以	-6.35329
并	-6.38362
我们	-6.3984
已经	-6.40339
所	-6.41106
欧洲	-6.41303
一个	-6.42216
到	-6.43628
就	-6.43956
可以	-6.44232
▁”	-6.44842
从	-6.45029
·	-6.45343
都	-6.45534
一	-6.4576
他们	-6.48467
性	-6.48854
▁在	-6.49154
:	-6.52668
让	-6.56561
以及	-6.58036
更	-6.59428
问题	-6.61343
时	-6.63672
这一	-6.65125
需要	-6.65222
可能	-6.65977
或	-6.67483
▁)	-6.67619
政策	-6.69543
这些	-6.69876
增长	-6.69983
欧盟	-6.70647
全球	-6.70791
新	-6.7117
要	-6.72682
这	-6.72791
者	-6.73192
于	-6.76379
他	-6.77191
;	-6.78596
后	-6.78922
世界	-6.80674
政治	-6.81472
市场	-6.81685
▁%	-6.81755
它	-6.82699
因为	-6.83601
必须	-6.8605
比	-6.8614
没有	-6.87348
最	-6.87758
向	-6.885
?	-6.88786
下	-6.89851
能	-6.90695
说	-6.9143
还	-6.941
用	-6.95751
银行	-6.9611
等	-6.96602
通过	-6.97846
投资	-6.98034
应该	-6.98293
正在	-6.99171
高	-7.01538
支持	-7.03496
无	-7.0367
认为	-7.04081
多	-7.04649
能够	-7.04877
之	-7.05841
实现	-7.07351
英国	-7.08671
月	-7.08913
计划	-7.12143
公司	-7.1282
▁而	-7.12897
—	-7.13304
出	-7.14097
企业	-7.14464
进行	-7.14845
前	-7.16125
它们	-7.16172
国	-7.17332
尔	-7.17589
着	-7.18174
发展	-7.18972
过	-7.19022
无法	-7.20341
包括	-7.21399
▁但是	-7.21702
成为	-7.21848
▁如果	-7.22339
危机	-7.22821
给	-7.22956
增加	-7.23198
改革	-7.23327
其他	-7.23669
影响	-7.24195
可	-7.24414
社会	-7.25211
我	-7.25766
斯	-7.25922
却	-7.26631
地区	-7.26704
化	-7.27655
里	-7.28374
提供	-7.28779
开始	-7.28993
所有	-7.30497
国际	-7.30594
20	-7.3061
由	-7.31155
把	-7.31507
解决	-7.31577
安全	-7.31578
技术	-7.31979
债务	-7.33106
金融	-7.33217
▁这	-7.33632
现在	-7.34765
要求	-7.35487
那些	-7.35863
▁事实上	-7.37104
1	-7.38837
机构	-7.38961
如果	-7.39081
德国	-7.39752
一些	-7.39763
许多	-7.40079
力	-7.40165
3	-7.40447
货币	-7.41396
风险	-7.41447
俄罗斯	-7.42766
方面	-7.44256
人们	-7.44307
民主	-7.45238
得	-7.45478
非洲	-7.46115
GDP	-7.46132
导致	-7.46403
收入	-7.46611
自	-7.4698
则	-7.47623
获得	-7.47931
内	-7.48026
及	-7.48127
使	-7.48207
目标	-7.48424
拉	-7.48851
日本	-7.48884
更加	-7.49551
5	-7.49753
▁“	-7.49965
印度	-7.50539
-	-7.50572
当	-7.51702
这种	-7.52169
好	-7.52722
能源	-7.53116
因此	-7.53217
如此	-7.53353
存在	-7.53789
低	-7.54147
该	-7.54326
发生	-7.54478
任何	-7.54587
▁此外	-7.54856
▁因此	-7.55368
工作	-7.55584
甚至	-7.55604
去	-7.5593
e	-7.56073
长期	-7.56621
家	-7.56921
决定	-7.56946
国内	-7.57791
贸易	-7.58582
人口	-7.59134
亚洲	-7.59143
欧元区	-7.59276
又	-7.59666
合作	-7.59951
挑战	-7.61199
这个	-7.61297
总统	-7.61325
小	-7.61657
选择	-7.61736
自己	-7.62238
世纪	-7.62931
尽管	-7.63114
特	-7.63278
就是	-7.63356
环境	-7.63768
领导人	-7.63777
已	-7.64091
战略	-7.64191
主要	-7.64403
6	-7.6482
最终	-7.65392
那么	-7.65446
继续	-7.65678
点	-7.65817
希望	-7.6607
来说	-7.66388
如何	-7.66483
的国家	-7.66558
这样的	-7.6665
非	-7.66789
量	-7.66807
名	-7.66935
使用	-7.67082
们	-7.67656
2	-7.67685
作为	-7.67945
拥有	-7.68103
水	-7.68137
克	-7.68931
组织	-7.69359
移民	-7.69386
美元	-7.69404
近	-7.69823
日	-7.70126
受	-7.70523
教育	-7.70828
正	-7.70993
实施	-7.71101
提高	-7.71179
似乎	-7.71302
采取	-7.71483
法	-7.71678
像	-7.71942
不会	-7.72166
重	-7.72255
4	-7.72433
财政	-7.72902
并不	-7.73334
战争	-7.73609
保护	-7.73807
稳定	-7.74409
水平	-7.74434
权	-7.7491
仍然	-7.75082
个	-7.75167
7	-7.75338
自由	-7.75344
协议	-7.75421
德	-7.75656
关系	-7.75898
伊朗	-7.76084
改变	-7.7616
起	-7.76203
重要	-7.76417
一种	-7.77067
管理	-7.77389
控制	-7.77658
行动	-7.77708
还是	-7.77798
因素	-7.77858
心	-7.77933
接受	-7.7806
来自	-7.78246
法国	-7.78876
▁我们	-7.78943
并且	-7.79258
研究	-7.79317
不是	-7.79528
严重	-7.79902
8	-7.79916
未来	-7.79955
一样	-7.80745
成本	-7.80843
外	-7.8099
项目	-7.81125
分	-7.81238
利率	-7.81261
措施	-7.81403
西方	-7.81451
出口	-7.81569
主义	-7.81764
冲突	-7.81786
最近	-7.82086
资金	-7.82146
如	-7.82297
只有	-7.8232
价格	-7.82393
出现	-7.82619
的人	-7.82676
事	-7.8276
9	-7.82805
s	-7.82823
共同	-7.83332
完全	-7.83364
保持	-7.83666
占	-7.83917
降低	-7.83922
不同	-7.83992
长	-7.84044
制度	-7.84213
行	-7.84533
▁尽管	-7.84598
特朗普	-7.85041
利	-7.85059
谈判	-7.85168
减少	-7.85204
下降	-7.85568
新的	-7.85736
反	-7.86124
家庭	-7.86186
威胁	-7.86274
得到	-7.86307
.	-7.86728
总	-7.86801
▁中国	-7.86951
资本	-7.87378
过去	-7.87599
行为	-7.88089
而不是	-7.88474
或者	-7.88543
创新	-7.88608
重新	-7.89294
大部分	-7.89332
从而	-7.89335
开	-7.89519
受到	-7.89542
而且	-7.89678
不断	-7.89723
目前	-7.89787
a	-7.89896
对于	-7.90187
资源	-7.90255
看	-7.90317
《	-7.90929
发	-7.90968
表明	-7.90977
仍	-7.91043
帮助	-7.91322
也是	-7.91646
不能	-7.91791
面	-7.91851
监管	-7.92144
是否	-7.92171
关注	-7.92188
进一步	-7.92189
的经济	-7.92235
非常	-7.92281
改善	-7.92622
一直	-7.9278
系统	-7.9311
产生	-7.93164
天	-7.93421
入	-7.9361
加	-7.93714
推动	-7.93821
学	-7.94039
建立	-7.94304
成功	-7.94402
确保	-7.94546
做	-7.94973
选举	-7.95027
体系	-7.95134
生	-7.95282
变化	-7.95705
消费	-7.95766
核	-7.95805
需求	-7.95823
某些	-7.96058
本	-7.9637
头	-7.96374
意	-7.96527
承诺	-7.96702
应对	-7.96858
带来	-7.96979
气候变化	-7.9699
想	-7.97109
城市	-7.97221
利益	-7.97236
经济增长	-7.98117
同时	-7.98124
持续	-7.98235
还有	-7.98352
定	-7.99008
结果	-7.99019
▁比如	-7.99345
之间	-7.99452
你	-7.99469
▁美国	-7.99497
各国	-7.9977
大量	-7.99794
自己的	-7.99825
服务	-8.00064
和平	-8.00173
期	-8.00297
o	-8.00298
他们的	-8.003
联合国	-8.00353
数据	-8.00453
军	-8.00589
只	-8.007
模式	-8.00741
和其他	-8.00918
派	-8.00929
A	-8.01088
▁他们	-8.01244
成	-8.01415
利用	-8.017
造成	-8.01733
美联储	-8.01849
限制	-8.02125
同	-8.02167
权力	-8.0217
马	-8.02295
d	-8.02669
生产	-8.02725
▁这些	-8.02896
更多	-8.03149
超过	-8.03487
只是	-8.03536
十	-8.03613
以色列	-8.03672
率	-8.03714
回	-8.03835
两	-8.04077
活动	-8.04178
制定	-8.04198
公共	-8.04609
面临	-8.04817
人类	-8.04943
领域	-8.05004
价值	-8.05036
规则	-8.05433
P	-8.05577
资产	-8.05759
军事	-8.05987
中国的	-8.06329
现实	-8.06394
再	-8.06401
投资者	-8.06548
C	-8.06668
万	-8.06806
联盟	-8.06894
历史	-8.06962
竞争	-8.0745
部门	-8.07567
支出	-8.07685
具有	-8.07789
关于	-8.07976
亿美元	-8.08184
健康	-8.08281
人民	-8.08405
反对	-8.08421
其中	-8.08719
传统	-8.08793
信息	-8.08797
以来	-8.089
扩大	-8.0892
数	-8.08957
三	-8.09228
合	-8.09285
民众	-8.09447
破坏	-8.09452
参与	-8.09556
机会	-8.09629
几乎	-8.09741
都是	-8.09972
度	-8.10174
动	-8.10217
欧元	-8.10229
是一个	-8.1059
实际	-8.10718
手	-8.10739
全世界	-8.10888
援助	-8.11025
战	-8.11291
子	-8.11364
日益	-8.11792
此	-8.11889
》	-8.12062
位	-8.12101
规模	-8.12109
经济学家	-8.12241
税	-8.12322
美	-8.12764
约	-8.12798
的话	-8.12843
委员会	-8.13183
时间	-8.132
央行	-8.13348
繁荣	-8.1338
发现	-8.13661
结束	-8.13784
▁当然	-8.13986
希腊	-8.14188
之间的	-8.144
什么	-8.14612
制	-8.14635
状况	-8.14686
融资	-8.1493
的政治	-8.15238
机制	-8.1555
的问题	-8.15652
这样	-8.15828
意味着	-8.15866
年代	-8.15889
令人	-8.16032
t	-8.16086
交易	-8.16104
中的	-8.16389
▁这一	-8.16491
事件	-8.16528
维持	-8.16944
情况	-8.17037
考虑	-8.17186
p	-8.17208
创造	-8.17301
19	-8.17317
指出	-8.17415
党	-8.17429
避免	-8.17463
海	-8.17569
很	-8.17804
大规模	-8.17842
区	-8.17852
n	-8.17886
能力	-8.17909
贷款	-8.17945
金	-8.18132
个人	-8.18192
一项	-8.18229
力量	-8.18258
i	-8.18366
年的	-8.18396
10	-8.18449
报告	-8.18463
流	-8.18996
er	-8.1916
土耳其	-8.19321
经济体	-8.19422
方案	-8.19542
即	-8.19579
卡	-8.19749
做出	-8.198
贫困	-8.199
y	-8.20006
成员国	-8.20129
上升	-8.20198
刺激	-8.202
令	-8.2033
S	-8.211
数字	-8.21145
整个	-8.21233
的情况下	-8.21262
预测	-8.21918
远	-8.22166
可能会	-8.2226
欧洲央行	-8.22281
E	-8.22764
实	-8.22807
才能	-8.23427
不仅	-8.23681
次	-8.23846
▁如今	-8.24205
美国的	-8.24239
h	-8.24254
知道	-8.24391
线	-8.24613
基础设施	-8.24951
任	-8.25081
商	-8.25386
方	-8.25546
作用	-8.25585
发展中国家	-8.2564
气候	-8.25756
试图	-8.25792
将会	-8.25942
2008	-8.25951
通胀	-8.26004
行业	-8.26138
文化	-8.26323
▁他	-8.26364
每	-8.26377
一次	-8.26497
内部	-8.26628
关键	-8.2663
同样	-8.26688
▁从	-8.2681
他的	-8.26816
相	-8.26819
每年	-8.27105
有效	-8.27122
尼	-8.27156
进入	-8.27226
an	-8.27229
预算	-8.27621
代表	-8.27644
不可	-8.27663
的政策	-8.27719
达到	-8.27844
间	-8.2789
损失	-8.28051
商业	-8.28172
乌克兰	-8.28249
巴西	-8.28265
官员	-8.28419
▁当	-8.28565
巨大的	-8.28678
法律	-8.28699
更多的	-8.28759
之后	-8.28787
强	-8.28825
那	-8.28868
直接	-8.28878
及其	-8.28919
革命	-8.29016
科学	-8.29077
至少	-8.29288
相关	-8.2938
标准	-8.29503
公民	-8.29769
重大	-8.29871
有可能	-8.29894
当前	-8.30041
公	-8.30098
担心	-8.3014
针对	-8.30342
知	-8.30566
部	-8.30769
叙利亚	-8.30771
特别是	-8.30927
意大利	-8.3093
运动	-8.31308
调整	-8.31415
也许	-8.3147
条件	-8.31476
产品	-8.31497
依然	-8.31575
儿童	-8.31733
十分	-8.31949
由于	-8.32098
身	-8.32148
医疗	-8.32198
的时候	-8.32215
选民	-8.32718
方法	-8.32722
一场	-8.32804
如今	-8.3281
钱	-8.3283
独立	-8.32957
相信	-8.33021
原因	-8.33086
明	-8.33236
而是	-8.33348
之前	-8.3337
B	-8.33437
▁(	-8.33447
处	-8.33478
才	-8.33581
汇率	-8.33693
或许	-8.33928
就业	-8.3415
部分	-8.34559
u	-8.34623
之一	-8.34671
▁我	-8.3476
的新	-8.34883
格	-8.34896
文	-8.34951
的是	-8.34957
就会	-8.35
的影响	-8.35136
30	-8.35253
她	-8.3537
达	-8.35696
债券	-8.35786
税收	-8.36007
上述	-8.36058
因	-8.36438
民	-8.36563
生活	-8.36946
局	-8.3701
▁与此同时	-8.37149
作	-8.37163
迅速	-8.37198
公众	-8.37208
布	-8.37252
会议	-8.37394
G	-8.37507
但是	-8.3752
暴力	-8.37907
曾	-8.38013
难以	-8.38028
应	-8.38065
奥巴马	-8.38066
打	-8.38154
阻止	-8.3857
程度	-8.38612
进步	-8.38696
风	-8.38705
相对	-8.38781
努力	-8.38961
领导	-8.39053
随着	-8.39319
手段	-8.39615
地位	-8.39718
那样	-8.39763
积极	-8.39795
走	-8.3981
依赖	-8.40019
气	-8.40224
证明	-8.40485
网络	-8.40661
M	-8.40727
货币政策	-8.40872
决策	-8.40944
压力	-8.41367
难民	-8.41424
建设	-8.41704
农业	-8.41733
方式	-8.42104
承认	-8.42112
理解	-8.42326
言	-8.42453
埃及	-8.42461
自身	-8.42518
几	-8.42893
罗	-8.43298
b	-8.433
取	-8.43569
时代	-8.43572
爆发	-8.43608
往往	-8.43721
宣布	-8.43888
州	-8.44011
责任	-8.44083
发达国家	-8.44131
I	-8.44141
失败	-8.44255
至	-8.44266
见	-8.44338
al	-8.44402
拒绝	-8.44434
感	-8.44448
真正	-8.44609
促进	-8.44617
人民币	-8.44621
面对	-8.44759
全球经济	-8.44888
应当	-8.44928
遏制	-8.45352
治理	-8.45398
基于	-8.45452
西	-8.45485
比如	-8.45746
▁相反	-8.45821
趋势	-8.45985
▁首先	-8.46184
削减	-8.46279
带	-8.46395
外交	-8.46401
储蓄	-8.46433
讨论	-8.46471
维	-8.46539
并没有	-8.46558
越	-8.46891
阿	-8.4695
更为	-8.47145
亚	-8.47246
衰退	-8.47267
老	-8.47311
用于	-8.47427
且	-8.47428
腐败	-8.47631
▁随着	-8.47755
纳	-8.47789
其他国家	-8.47813
在于	-8.47884
缺乏	-8.47973
基本	-8.48147
领袖	-8.4816
一致	-8.48236
主	-8.48268
媒体	-8.48352
电	-8.48365
全	-8.48536
安	-8.4864
只能	-8.4867
上的	-8.49183
而言	-8.49225
结构	-8.4925
基金	-8.49536
代	-8.4966
这一点	-8.49713
允许	-8.49884
数量	-8.49894
短期	-8.49903
信	-8.49968
路	-8.50106
转	-8.50118
预期	-8.50478
时期	-8.50539
先	-8.50636
体	-8.50659
吗	-8.5066
工具	-8.50664
亿	-8.51012
大学	-8.51039
in	-8.51237
变得	-8.51348
石油	-8.51379
提出	-8.51472
我们的	-8.51552
空	-8.51771
条约	-8.5186
不可能	-8.51869
越来越	-8.51949
形成	-8.52106
外国	-8.52178
中东	-8.52178
决策者	-8.5231
推	-8.52394
夫	-8.52429
原	-8.52716
最大的	-8.52947
m	-8.53101
基础	-8.53193
干预	-8.53292
政权	-8.53311
大幅	-8.53321
较	-8.53357
期间	-8.53393
完成	-8.53405
场	-8.53421
工人	-8.53703
平衡	-8.53755
▁虽然	-8.53756
▁它	-8.53794
韩国	-8.53918
相当	-8.53991
陷入	-8.5412
执行	-8.54259
种	-8.54265
各	-8.54315
物	-8.54601
全球化	-8.54666
开放	-8.5467
进	-8.54761
N	-8.55039
性的	-8.55052
四	-8.55057
后果	-8.55092
有所	-8.55153
女性	-8.55172
人权	-8.55187
解释	-8.55281
劳动力	-8.55373
加强	-8.55477
门	-8.5554
有助于	-8.55652
en	-8.55734
明确	-8.55772
过度	-8.55968
经济学	-8.55992
加入	-8.56005
伊拉克	-8.56224
巴	-8.56233
D	-8.56575
通常	-8.56693
不再	-8.5673
美国人	-8.56843
观点	-8.56899
私人	-8.56971
一位	-8.57105
转型	-8.57115
强调	-8.57118
有关	-8.57375
50	-8.57711
疾病	-8.57965
额	-8.57999
热	-8.58119
阿富汗	-8.58139
中心	-8.58154
制造	-8.5818
基	-8.58205
表现	-8.58389
强化	-8.58458
认识到	-8.58468
承担	-8.5856
并非	-8.58848
国家的	-8.5894
然	-8.58957
很多	-8.58965
变	-8.59093
感到	-8.59194
保证	-8.59199
道	-8.59257
外部	-8.59324
鼓励	-8.59406
T	-8.59493
清	-8.59722
十年	-8.59754
重要的	-8.59824
工资	-8.5984
2015	-8.59918
型	-8.59925
原则	-8.59976
业	-8.59997
教	-8.60007
一切	-8.60034
的主要	-8.60061
两个	-8.60139
地方	-8.60416
的目标	-8.606
称	-8.60611
太	-8.60766
光	-8.60856
投票	-8.6091
总理	-8.60938
最后	-8.60949
进口	-8.61138
科	-8.61163
评估	-8.61337
看到	-8.615
品	-8.61528
显示	-8.61746
两国	-8.6183
r	-8.61838
广泛	-8.62009
开发	-8.62018
平均	-8.62278
极	-8.62315
IMF	-8.62426
扩张	-8.62426
治疗	-8.62439
起来	-8.62461
准备	-8.62591
选	-8.62603
所谓的	-8.62646
值	-8.62687
000	-8.62796
意义	-8.62839
通	-8.62901
多数	-8.62975
东	-8.62999
处于	-8.63151
ar	-8.63389
主权	-8.6355
大约	-8.63615
消费者	-8.63667
达成	-8.63712
既	-8.63731
理	-8.63742
算	-8.63877
优势	-8.63978
未	-8.64052
潜在	-8.64161
当局	-8.64329
公开	-8.6434
该国	-8.64376
显然	-8.64406
框架	-8.64641
简单	-8.6487
专家	-8.64888
处理	-8.64932
难	-8.64988
on	-8.65046
花	-8.65077
f	-8.65088
建议	-8.65328
放	-8.65393
实力	-8.65567
H	-8.65768
再次	-8.65836
即使	-8.65841
11	-8.65844
问题上	-8.66089
为了	-8.66206
收	-8.66227
目的	-8.66334
g	-8.66357
贬值	-8.66389
困难	-8.66681
赤字	-8.66783
道德	-8.66965
步	-8.67005
奥	-8.67136
成立	-8.67157
本身	-8.67183
虽然	-8.67217
到了	-8.67346
落	-8.67354
▁欧洲	-8.67356
成员	-8.67467
▁然而	-8.67531
财富	-8.67589
错误	-8.67972
调	-8.67977
R	-8.68273
车	-8.68291
过程	-8.68372
式	-8.68397
现代	-8.68435
火	-8.68748
年前	-8.68973
阿根廷	-8.6899
调查	-8.68999
确实	-8.69007
波	-8.69204
策略	-8.69461
另一个	-8.69516
2010	-8.69827
妇女	-8.69933
c	-8.70105
金融市场	-8.70123
找到	-8.70221
or	-8.70286
第一	-8.70343
收益	-8.70432
界	-8.70465
寻求	-8.70643
影响力	-8.70849
人员	-8.71029
论	-8.71123
防止	-8.71124
市	-8.71267
表示	-8.71362
全面	-8.71418
交	-8.71542
▁现在	-8.71582
联合	-8.71775
支付	-8.71855
机	-8.71856
议会	-8.71978
生产率	-8.72032
曾经	-8.72376
条	-8.7252
巴基斯坦	-8.72562
深	-8.72629
职	-8.72984
情	-8.73151
真正的	-8.73196
快速	-8.73253
今天	-8.73368
进程	-8.7338
声	-8.73688
卫生	-8.73763
这是	-8.73833
新闻	-8.73834
年轻人	-8.73899
负	-8.7409
巨大	-8.74142
12	-8.74312
就像	-8.74557
级	-8.74626
哈	-8.74768
为什么	-8.74967
的能力	-8.74967
统一	-8.75008
五	-8.75262
工业	-8.7544
民主党	-8.75589
事实	-8.75675
病	-8.75736
宗教	-8.75789
存	-8.75801
口	-8.75809
危险	-8.75844
西班牙	-8.76014
呢	-8.76014
生命	-8.76054
购买	-8.76265
下跌	-8.76304
解	-8.76373
▁毕竟	-8.76408
也会	-8.765
尽	-8.76628
充分	-8.76849
15	-8.76854
政党	-8.76949
范围	-8.76969
共和党	-8.77039
集团	-8.77138
员	-8.77217
办法	-8.77228
崩溃	-8.77277
打击	-8.77296
解决方案	-8.77396
复苏	-8.77443
列	-8.77476
冲击	-8.77537
的关键	-8.77589
这场	-8.77786
今年	-8.7799
工	-8.78016
南	-8.78034
O	-8.78043
萨	-8.78043
倍	-8.78059
大多数	-8.78061
正是	-8.78114
失	-8.78239
之外	-8.7842
复杂	-8.78482
体制	-8.78516
90	-8.78517
别	-8.78805
追求	-8.78819
的风险	-8.7883
伊斯兰	-8.78893
举	-8.78915
错	-8.78964
米	-8.78996
均	-8.79189
项	-8.79322
想要	-8.79491
▁为了	-8.79502
效率	-8.79577
根据	-8.79672
理论	-8.79686
信心	-8.79754
信用	-8.79763
知识	-8.79854
宪法	-8.79856
少	-8.79897
愿意	-8.79908
政	-8.80107
死亡	-8.8034
恢复	-8.80575
得多	-8.80603
满足	-8.80921
视	-8.80931
取得	-8.81027
提	-8.81098
k	-8.81103
除	-8.81109
增长率	-8.81151
六	-8.81164
坚持	-8.81168
权利	-8.81556
引发	-8.81601
常常	-8.81705
联邦	-8.81757
仅	-8.81787
▁:	-8.82061
执政	-8.82106
思想	-8.82258
明显	-8.82316
联系	-8.82444
世	-8.82471
金融危机	-8.82599
▁由于	-8.82692
逐渐	-8.82762
左右	-8.82822
的情况	-8.8287
并不是	-8.82872
怀疑	-8.83034
群体	-8.83049
60	-8.83059
观	-8.83186
贡献	-8.833
现象	-8.83307
现有	-8.83518
兰	-8.8355
分析	-8.83566
同意	-8.83596
首	-8.84192
激励	-8.84385
▁而且	-8.84486
不足	-8.84559
朝鲜	-8.8465
的支持	-8.8485
密	-8.84901
情绪	-8.84933
确定	-8.84946
欧洲的	-8.85088
前景	-8.85248
视为	-8.85356
听	-8.85505
商品	-8.85575
动荡	-8.85612
领	-8.85665
F	-8.85739
2013	-8.85799
2014	-8.85814
女	-8.85847
白	-8.85867
竞争力	-8.85892
以上	-8.8602
▁发自	-8.86042
至关重要	-8.86314
技能	-8.86325
普京	-8.86593
不平等	-8.86674
该地区	-8.86723
书	-8.8687
瓦	-8.86872
它们的	-8.86891
真实	-8.86893
批评	-8.8692
也将	-8.86948
二	-8.87049
▁》	-8.8712
亲	-8.87124
灾难	-8.87128
反应	-8.87148
放弃	-8.87156
年以来	-8.87182
了一个	-8.87254
万亿美元	-8.87293
面临着	-8.87325
/	-8.87433
平	-8.87464
设计	-8.87719
不但	-8.87723
赢得	-8.87741
自然	-8.87765
有人	-8.87779
局面	-8.87804
统治	-8.87966
提升	-8.88007
最高	-8.88029
核心	-8.88163
可持续	-8.88228
很难	-8.88315
并未	-8.88346
吸引	-8.88367
犯	-8.88369
武器	-8.88531
状态	-8.88564
政客	-8.8857
新兴市场	-8.88624
区域	-8.88675
问	-8.88835
仅仅	-8.8885
▁最后	-8.89064
官方	-8.8915
制裁	-8.89151
更大的	-8.89361
即便	-8.89391
形式	-8.89555
的机会	-8.89723
民粹主义	-8.898
▁目前	-8.89806
而非	-8.89837
华	-8.89997
福利	-8.90146
俄国	-8.90185
指	-8.90211
地球	-8.90392
一系列	-8.90576
事务	-8.90595
本国	-8.90681
的方式	-8.9072
这类	-8.90748
引起	-8.91098
失去	-8.91132
国会	-8.91133
提供了	-8.91203
共	-8.91214
常	-8.91216
无论	-8.91374
也在	-8.91419
穆斯林	-8.91451
分裂	-8.91538
土地	-8.91585
节	-8.91659
进展	-8.91736
想象	-8.91764
恶化	-8.91794
超	-8.92033
谁	-8.92038
第二	-8.92072
方面的	-8.92355
退出	-8.9252
主席	-8.9258
快	-8.92627
精英	-8.92636
投入	-8.92655
费	-8.92778
崛起	-8.92788
图	-8.9288
破产	-8.9293
2012	-8.93025
早	-8.93053
巴勒斯坦	-8.93086
军队	-8.93247
类	-8.93271
都会	-8.9336
极端	-8.93429
强大的	-8.9347
差	-8.93495
教训	-8.93522
方向	-8.93524
l	-8.93582
40	-8.93655
特别	-8.93711
re	-8.93839
根本	-8.9388
类似的	-8.9401
阶段	-8.94121
普遍	-8.94124
波动	-8.94128
布什	-8.94181
规定	-8.94201
现	-8.94248
失业	-8.94411
持有	-8.94525
当时	-8.94536
演	-8.94625
一半	-8.94724
补贴	-8.94726
领土	-8.94777
世界银行	-8.94961
容易	-8.94987
眼	-8.95076
值得	-8.95183
了解	-8.95192
靠	-8.95215
问题的	-8.95305
障碍	-8.95332
"	-8.95333
负责	-8.95717
尤其	-8.95769
具体	-8.95775
转变	-8.95782
微	-8.95866
击	-8.95891
略	-8.95897
墨西哥	-8.95942
岁	-8.95942
的原因	-8.95959
增	-8.96355
取决于	-8.96556
适应	-8.96565
▁对于	-8.9666
照	-8.96854
汽车	-8.96866
巴黎	-8.96868
显著	-8.96869
层面	-8.96901
立法	-8.96996
转向	-8.97029
产业	-8.97047
的增长	-8.97136
对此	-8.97159
索	-8.97167
推进	-8.97174
某种	-8.97179
食品	-8.97183
停止	-8.97184
去年	-8.97405
证	-8.97406
不到	-8.97653
效	-8.97754
公平	-8.97787
国际社会	-8.97962
18	-8.98056
争论	-8.98071
谈	-8.98087
协调	-8.98112
空间	-8.9815
则是	-8.98181
民族主义	-8.98193
▁该	-8.98244
相当于	-8.98288
经验	-8.98309
集中	-8.98364
的作用	-8.98402
消除	-8.98493
也有	-8.98502
也不	-8.9852
这样做	-8.98548
没	-8.98588
利润	-8.98739
否则	-8.98749
▁但这	-8.98863
记	-8.98879
严重的	-8.98893
欧洲人	-8.98961
散	-8.99012
攻击	-8.99055
信贷	-8.99059
正确	-8.99111
许多人	-8.99131
▁它们	-8.99336
符合	-8.99378
最重要的	-8.99441
事实上	-8.99494
各种	-8.9951
死	-8.99525
百	-8.99603
普	-8.99609
70	-8.99668
忽视	-8.99688
相比	-8.99761
恶	-8.99906
八	-9.00005
还要	-9.00183
从未	-9.00237
好处	-9.00278
泡沫	-9.00323
的全球	-9.00385
的结果	-9.00584
福	-9.00601
的那样	-9.007
的观点	-9.00806
报	-9.0087
止	-9.00907
接	-9.00925
一年	-9.00931
英	-9.011
这项	-9.01196
第	-9.01228
经历	-9.01272
蒙	-9.0129
互联网	-9.01291
有效的	-9.0141
表	-9.01415
协定	-9.01506
▁这种	-9.01534
股市	-9.01552
呼吁	-9.01613
命	-9.01625
断	-9.01678
势力	-9.01798
失业率	-9.01973
也就是	-9.02034
学生	-9.02217
制造业	-9.02247
团结	-9.02268
重点	-9.02425
中国经济	-9.0246
分配	-9.02582
持	-9.02636
80	-9.02785
▁正如	-9.02857
爱	-9.02918
类似	-9.02931
所面临的	-9.03012
邻国	-9.03079
古	-9.03207
共识	-9.03241
污染	-9.03243
跟	-9.03247
依靠	-9.03251
国际货币基金组织	-9.03259
w	-9.03392
一定	-9.03423
奇	-9.03569
工程	-9.03578
房地产	-9.03578
更大	-9.03759
假	-9.03863
境	-9.03883
袭击	-9.03906
人士	-9.03966
其实	-9.0399
外交政策	-9.04128
的一个	-9.04161
发挥	-9.04216
也没有	-9.04249
社区	-9.04256
2016	-9.04277
总体	-9.04286
实际上	-9.04429
乱	-9.04561
林	-9.04563
也可以	-9.04581
斗争	-9.0463
半	-9.04727
紧缩	-9.04748
流动性	-9.04777
为何	-9.04826
概念	-9.04908
净	-9.04908
雷	-9.04909
单	-9.04912
连	-9.04928
2011	-9.05034
之中	-9.05067
细	-9.05226
苏联	-9.05244
速度	-9.05432
药	-9.05487
的利益	-9.05531
托	-9.05577
摆脱	-9.05583
变革	-9.05584
将在	-9.05584
在未来	-9.0562
多少	-9.0571
高达	-9.05761
掉	-9.05919
彻底	-9.0592
供给	-9.06026
使得	-9.0605
助	-9.06166
精神	-9.06334
住	-9.06565
传	-9.06578
旧	-9.06594
致力于	-9.06597
股票	-9.06602
的社会	-9.06658
支	-9.06764
产	-9.0687
零	-9.06895
这些国家	-9.06902
指标	-9.06944
当今	-9.06996
脆弱	-9.07082
欧	-9.07135
减	-9.07169
便	-9.07185
供应	-9.0719
潜力	-9.07298
▁这是	-9.07454
中央银行	-9.07625
北约	-9.07649
合理	-9.07702
理由	-9.07834
离	-9.07932
迫使	-9.08004
创	-9.08125
排放	-9.08179
真	-9.08196
尤其是	-9.08236
储备	-9.08314
山	-9.08316
梅	-9.08316
降	-9.0834
目	-9.0834
胜利	-9.08343
旨在	-9.08371
方针	-9.08516
任务	-9.08614
我们必须	-9.08628
经	-9.08656
农民	-9.08684
总是	-9.08754
▁欧盟	-9.0877
出来	-9.08805
▁同样	-9.08858
▁S	-9.08864
足够	-9.08885
构建	-9.08906
护	-9.08961
证据	-9.09004
孩子	-9.09051
核武器	-9.09055
恐怖主义	-9.09057
随后	-9.09104
有着	-9.09104
未能	-9.09186
被迫	-9.09339
写	-9.09342
坏	-9.0935
伊	-9.09357
盟友	-9.09363
在过去	-9.0937
价	-9.09398
肯定	-9.09422
是在	-9.095
出现了	-9.09621
效应	-9.09648
塔	-9.09713
▁但在	-9.09943
但却	-9.10019
语	-9.1003
化石燃料	-9.10064
100	-9.10072
往	-9.10098
加剧	-9.10211
对其	-9.10399
回报	-9.1042
阿拉伯	-9.10458
不确定性	-9.10482
自我	-9.10524
第三	-9.10563
就能	-9.10581
一份	-9.10585
的未来	-9.10588
正如	-9.10707
2009	-9.10794
采用	-9.10806
另一	-9.10876
当地	-9.10968
对中国	-9.10982
代价	-9.10988
更好的	-9.11029
的发展	-9.11051
保险	-9.11099
差距	-9.11129
伤害	-9.11134
▁P	-9.11308
大选	-9.11391
求	-9.11478
▁特别是	-9.11497
寻找	-9.11567
有利于	-9.11571
所带来的	-9.11704
问题是	-9.11711
有限	-9.11724
话	-9.11731
后者	-9.11828
引	-9.11903
质量	-9.11931
绝	-9.12102
最近的	-9.12156
有些	-9.12177
经常	-9.1225
的国际	-9.12261
角色	-9.12322
一点	-9.12421
立	-9.1245
三个	-9.12454
士	-9.12486
疫苗	-9.12564
学习	-9.12585
接近	-9.12615
最新	-9.12628
预计	-9.12647
分子	-9.12655
致	-9.12732
属	-9.12812
相反	-9.12817
资本主义	-9.12865
集	-9.12944
油	-9.13015
一直在	-9.13127
峰会	-9.13141
立场	-9.13224
习近平	-9.13276
▁即使	-9.1338
这意味着	-9.13419
多边	-9.13427
罪	-9.13431
削弱	-9.13445
伦敦	-9.13492
▁那么	-9.13538
的核心	-9.13577
今天的	-9.13619
诺	-9.13651
发表	-9.137
五年	-9.13744
信任	-9.13819
在美国	-9.1399
北京	-9.14022
一体化	-9.14067
要么	-9.14402
计	-9.14486
▁结果	-9.14542
它的	-9.14555
异	-9.14731
岛	-9.1474
2007	-9.14783
民族	-9.14893
效果	-9.14902
带来了	-9.15125
关	-9.15185
几年	-9.15191
居	-9.15203
势	-9.15234
那就是	-9.15247
让我们	-9.15331
正式	-9.15389
普通	-9.15521
同时也	-9.15833
负担	-9.15925
碳	-9.15943
世界经济	-9.16023
周	-9.16124
最大	-9.16157
增加了	-9.16212
倒	-9.16218
衡量	-9.16248
粮食	-9.16248
边境	-9.16258
比例	-9.16272
取得了	-9.16316
千	-9.16546
将是	-9.16563
监督	-9.16624
缅甸	-9.16624
集体	-9.16645
即将	-9.16677
永远	-9.16973
签署	-9.17003
假设	-9.17008
身份	-9.17011
缺少	-9.17013
遭受	-9.17052
价值观	-9.17143
所需要的	-9.17189
退	-9.17311
停滞	-9.17381
▁据	-9.17391
不同的	-9.17502
必要	-9.17552
主导	-9.17756
提振	-9.17765
开支	-9.17765
定义	-9.17988
秩序	-9.18036
初	-9.1805
不应该	-9.18068
森	-9.1813
▁例如	-9.1814
是因为	-9.18165
层	-9.18208
举行	-9.18274
那里	-9.1831
源	-9.18317
讲	-9.1833
时候	-9.18357
迪	-9.18509
限	-9.18519
质疑	-9.18532
都在	-9.18765
可以通过	-9.18881
艾滋病	-9.189
曼	-9.1891
看来	-9.19082
库	-9.19292
发达经济体	-9.19311
对话	-9.19314
而这	-9.1948
劳动	-9.19508
农	-9.19619
指责	-9.19688
严格	-9.19697
批准	-9.19699
大大	-9.19722
增强	-9.19759
这个问题	-9.1977
遭到	-9.19954
L	-9.20017
地区的	-9.20106
取代	-9.20116
对美国	-9.20144
生存	-9.20202
程序	-9.2021
只要	-9.20282
的挑战	-9.20361
强大	-9.20434
中国领导人	-9.20544
5%	-9.20717
债	-9.20749
比较	-9.20796
司法	-9.20829
竞选	-9.20858
暴	-9.20901
件	-9.21025
联	-9.21141
and	-9.21181
阻碍	-9.21249
姆	-9.21249
地缘政治	-9.2125
生物	-9.21598
痛苦	-9.21647
的可能性	-9.21737
几个	-9.21789
es	-9.21889
资	-9.21912
中国政府	-9.21935
香港	-9.22042
混乱	-9.22046
争议	-9.22049
运	-9.22164
重组	-9.22222
全部	-9.22314
付出	-9.22414
差异	-9.22453
的同时	-9.22514
很大	-9.22648
警	-9.2279
这次	-9.22832
驱动	-9.22839
思维	-9.22852
真的	-9.22886
投	-9.22943
平等	-9.22989
升	-9.23138
威	-9.23196
J	-9.23237
鲁	-9.23238
不得不	-9.23257
首先	-9.23475
国民	-9.23554
大国	-9.23627
规划	-9.23646
模型	-9.2365
禁止	-9.23656
报道	-9.23667
25	-9.23675
发生了	-9.23751
指数	-9.23814
周期	-9.23895
W	-9.23993
经历了	-9.24036
华盛顿	-9.24037
提出了	-9.24057
导致了	-9.24133
久	-9.24146
2000	-9.24215
激进	-9.24216
东盟	-9.2432
科技	-9.24368
毒	-9.24433
我们需要	-9.24434
实行	-9.24548
▁B	-9.24666
态度	-9.24748
在欧洲	-9.24773
不愿	-9.24818
公投	-9.24889
年轻	-9.24923
穷人	-9.24935
造成了	-9.25153
发布	-9.25241
色	-9.2525
黑	-9.25263
官僚	-9.25274
登	-9.25274
智利	-9.25291
片	-9.25307
内容	-9.25311
底	-9.25334
产出	-9.25342
归	-9.25653
记录	-9.25685
答案	-9.25686
关税	-9.25754
主义者	-9.25801
得到了	-9.25841
▁根据	-9.25978
是为了	-9.25999
警告	-9.26007
议	-9.26028
轮	-9.26094
研发	-9.2613
的一部分	-9.26139
土	-9.26216
的长期	-9.26266
此前	-9.26289
的世界	-9.26351
加速	-9.26361
远远	-9.26468
压	-9.26469
装	-9.26496
救	-9.26498
通货膨胀	-9.26513
理念	-9.26516
▁不幸的是	-9.26552
余	-9.26582
队	-9.26865
例	-9.26897
造	-9.26918
善	-9.26919
爱尔兰	-9.26921
分歧	-9.2693
与美国	-9.26973
弱	-9.27008
学校	-9.27023
▁但如果	-9.27024
启动	-9.27032
都不	-9.27088
据	-9.27183
号	-9.27312
自身的	-9.27335
V	-9.27348
怎样	-9.27349
低于	-9.27352
取消	-9.27369
转移	-9.27477
回到	-9.2753
明白	-9.27662
因为它	-9.2769
访问	-9.27775
众	-9.2784
el	-9.27859
来源	-9.2789
意识到	-9.27932
估计	-9.28064
买	-9.28129
得以	-9.28159
经济发展	-9.28176
莱	-9.28191
信号	-9.28211
波兰	-9.28217
ic	-9.28236
21	-9.28286
科学家	-9.28346
很可能	-9.28411
网	-9.28559
支持者	-9.28561
▁中国的	-9.28595
z	-9.28614
天然气	-9.28619
at	-9.28661
的欧洲	-9.28668
发行	-9.28704
边	-9.28747
其它	-9.28767
的投资	-9.28768
导	-9.28844
干	-9.28879
随	-9.2891
可以在	-9.28944
私	-9.29001
票	-9.29006
癌症	-9.29041
思考	-9.29043
动力	-9.29059
神	-9.29346
北	-9.29449
恩	-9.29468
强烈	-9.29524
统计	-9.2953
的承诺	-9.29602
年间	-9.29602
富	-9.29643
最为	-9.29712
▁T	-9.29719
几十年	-9.29729
偏	-9.29809
独	-9.29817
印	-9.29832
禁	-9.29853
停	-9.29864
资产负债表	-9.29896
勒	-9.29897
绿色	-9.29897
新兴经济体	-9.29915
展开	-9.29916
的行为	-9.29975
就必须	-9.29993
伙伴	-9.30033
走向	-9.30148
高度	-9.30193
紧	-9.30268
末	-9.30297
扮演	-9.30328
500	-9.30335
很少	-9.30373
直	-9.30391
留	-9.30427
急	-9.30464
大型	-9.30492
充满	-9.30526
将其	-9.30571
优	-9.30715
种族	-9.30731
七	-9.3076
▁类似地	-9.30769
平台	-9.30784
众多	-9.3085
时刻	-9.30851
要想	-9.30959
然后	-9.30991
表现出	-9.31061
2%	-9.3117
相互	-9.31213
属于	-9.31333
消	-9.31447
并在	-9.3156
能否	-9.31633
乐观	-9.31644
克服	-9.31668
放缓	-9.31845
原因是	-9.31853
特别是在	-9.31868
缺陷	-9.32073
通缩	-9.32087
根	-9.32177
显	-9.32226
作出	-9.32226
活	-9.3236
ri	-9.32472
夺	-9.32479
吉	-9.32509
论坛	-9.32511
上涨	-9.32557
宏观经济	-9.3261
▁因为	-9.32635
as	-9.32654
部长	-9.32683
年后	-9.32782
案	-9.3283
▁其中	-9.32834
的努力	-9.32847
化的	-9.32926
都有	-9.32928
武装	-9.32955
世界上	-9.32958
升级	-9.32971
才是	-9.32978
约束	-9.33026
保	-9.33047
置	-9.33135
个国家	-9.33183
两大	-9.33212
结	-9.3323
应用	-9.33336
免	-9.33364
届	-9.33398
弗	-9.33398
困境	-9.33402
年来	-9.3357
获得了	-9.33628
端	-9.33777
糟糕	-9.33794
杀	-9.3401
合法性	-9.34038
▁包括	-9.34127
切	-9.34137
借	-9.34194
金融机构	-9.34304
安排	-9.34309
万人	-9.34313
日程	-9.34321
▁最近	-9.34325
两年	-9.34361
▁A	-9.34407
个月	-9.34441
俄	-9.34451
的确	-9.34509
词	-9.34585
所有人	-9.34596
不仅仅是	-9.34612
培训	-9.34743
举措	-9.34747
宣称	-9.3475
结论	-9.3476
▁其次	-9.34766
当前的	-9.34835
犯罪	-9.34876
所造成的	-9.34971
广	-9.34999
未来的	-9.35052
缩	-9.35085
换	-9.35128
查	-9.35168
顿	-9.35196
传播	-9.352
▁M	-9.35223
诸多	-9.35233
对抗	-9.35238
理想	-9.35266
is	-9.35268
成果	-9.35342
终	-9.35353
是一种	-9.35399
输	-9.35445
卖	-9.35641
以前	-9.35653
尊重	-9.35659
争	-9.35867
记者	-9.3588
当然	-9.36048
典	-9.36088
当选	-9.36104
有时	-9.3611
整体	-9.3612
南非	-9.36178
成就	-9.36223
候选人	-9.36352
基因	-9.36356
幕	-9.36565
形势	-9.36573
违约	-9.36577
2017	-9.36665
意见	-9.36671
出了	-9.3678
供	-9.36883
缺	-9.36962
足以	-9.36995
首相	-9.37011
若	-9.37017
抑制	-9.37038
团体	-9.3704
不管	-9.37057
全球变暖	-9.37066
▁C	-9.37074
反映了	-9.37086
危险的	-9.3718
吸引力	-9.37355
告	-9.37451
计算	-9.37455
捍卫	-9.37489
蒂	-9.37489
担任	-9.37499
促使	-9.37515
带来的	-9.37537
质	-9.37693
▁许多	-9.37736
▁英国	-9.37742
le	-9.37778
预防	-9.37812
温和	-9.37899
美国经济	-9.37912
量化宽松	-9.37954
左翼	-9.37954
按照	-9.37966
主张	-9.37972
激	-9.3798
ro	-9.38003
冷战	-9.38072
变得更加	-9.38115
一起	-9.38221
埃	-9.38366
是如此	-9.3841
洛	-9.38422
防	-9.38487
最低	-9.38498
在中国	-9.38626
欧盟委员会	-9.38692
精	-9.38797
款	-9.38835
生活在	-9.38861
莫	-9.38874
妥协	-9.38891
刚刚	-9.38893
喜欢	-9.38893
缓慢	-9.38894
贫穷	-9.38896
毫无	-9.38933
ur	-9.38954
可能是	-9.39011
营	-9.39064
受益	-9.39127
台	-9.39293
合法	-9.39321
拜	-9.39352
失衡	-9.39362
特征	-9.39384
引入	-9.3941
活力	-9.39428
少数	-9.39574
%	-9.39673
伤	-9.39824
给予	-9.39846
▁这意味着	-9.39853
美国总统	-9.39928
直到	-9.40022
甚	-9.40291
克林顿	-9.40313
遭遇	-9.40357
一条	-9.40368
之处	-9.40598
官	-9.40697
现金	-9.40708
的做法	-9.40724
情况下	-9.40762
哥伦比亚	-9.40791
贝	-9.40791
描述	-9.40792
感觉	-9.40804
升值	-9.40812
不满	-9.40814
疑	-9.40826
一般	-9.40862
▁G	-9.40881
就可以	-9.4094
am	-9.41144
足	-9.41183
双方	-9.41213
是个	-9.4122
同样的	-9.41261
U	-9.41272
现状	-9.41275
多年	-9.41331
构成	-9.41504
起到	-9.41505
所有这些	-9.41628
学家	-9.41641
巨额	-9.41771
采取行动	-9.41986
互相	-9.42011
劳动力市场	-9.42016
被视为	-9.42075
替代	-9.42203
布鲁塞尔	-9.42241
盈余	-9.42241
塞	-9.42241
医生	-9.42262
占据	-9.42286
仍在	-9.42349
▁尽管如此	-9.42515
产量	-9.42642
包	-9.42702
备	-9.42707
纽约	-9.42824
▁一个	-9.42985
服务业	-9.43001
拉美	-9.43031
果	-9.43109
法院	-9.43147
v	-9.43171
第一个	-9.43197
飞	-9.43202
中产阶级	-9.43219
支撑	-9.4322
强劲	-9.43221
电视	-9.43257
右翼	-9.43583
还没有	-9.4361
双边	-9.43676
潮	-9.43681
历史上	-9.43703
人工智能	-9.43711
尝试	-9.43712
早已	-9.43823
海外	-9.43854
全国	-9.43921
我的	-9.43938
易	-9.44071
败	-9.44074
追	-9.44193
射	-9.44207
表达	-9.44242
st	-9.44299
不过	-9.44313
还会	-9.44407
▁伦敦	-9.44428
和社会	-9.445
息	-9.4456
沙	-9.44619
的战略	-9.44619
施	-9.44665
巩固	-9.44704
拯救	-9.44704
紧密	-9.4472
抵制	-9.44747
套	-9.44787
每个	-9.44812
理性	-9.44838
必要的	-9.44853
样	-9.44952
▁去年	-9.44991
胜	-9.45022
更高的	-9.45123
用来	-9.45152
对手	-9.45173
恐惧	-9.45204
菲	-9.45205
▁-	-9.45208
宣传	-9.45208
象	-9.45247
球	-9.45259
事情	-9.45303
非法	-9.45375
河	-9.45601
伦	-9.45681
债权人	-9.45707
辩论	-9.45714
民主国家	-9.45735
回归	-9.45746
之所以	-9.45772
在这个	-9.45972
国外	-9.45981
具备	-9.46138
的研究	-9.46222
部队	-9.46242
造成的	-9.46292
强制	-9.46305
素	-9.4657
▁作为	-9.46609
▁纽约	-9.46632
管	-9.46693
成功的	-9.46698
惩罚	-9.46719
损害	-9.46722
承受	-9.46743
维护	-9.46749
2005	-9.46764
在内的	-9.46805
2001	-9.46862
▁而在	-9.46887
的需求	-9.47102
进行了	-9.47175
究竟	-9.47229
班	-9.4723
强硬	-9.47254
高于	-9.47299
197	-9.47341
站	-9.47481
成了	-9.47734
博	-9.4774
澳大利亚	-9.47742
经营	-9.47754
目前的	-9.47792
这一问题	-9.4787
许多国家	-9.47923
我们可以	-9.47976
担忧	-9.47987
▁除了	-9.48002
一步	-9.48007
的重要	-9.48055
除了	-9.48143
恐怖	-9.48168
任期	-9.4818
故事	-9.48279
的数据	-9.483
百万	-9.48459
货币联盟	-9.48506
预	-9.48615
在其	-9.48689
裁	-9.48691
负债	-9.48753
贫	-9.48766
的反	-9.48773
发动	-9.48784
害	-9.48835
重建	-9.48849
电力	-9.48942
et	-9.48987
九	-9.49148
脱欧	-9.49185
范	-9.49247
赫	-9.49297
送	-9.49297
紧迫	-9.49299
局势	-9.49321
语言	-9.49329
更高	-9.49336
国有企业	-9.49351
正确的	-9.49426
认识	-9.49525
的唯一	-9.49566
党派	-9.49619
专	-9.49662
ch	-9.49677
▁人们	-9.49699
的工作	-9.49748
操纵	-9.4976
销	-9.49803
道路	-9.49809
新加坡	-9.4982
紧张	-9.49821
掌握	-9.49821
心理	-9.4986
的方法	-9.49929
也无法	-9.50126
笔	-9.50177
足够的	-9.50212
都将	-9.50227
本地	-9.50244
▁这个	-9.50321
按	-9.50332
史	-9.50342
镇压	-9.50349
可再生能源	-9.50357
ing	-9.50398
有一个	-9.50408
▁通过	-9.50412
建	-9.50545
14	-9.50593
各国政府	-9.50657
评论	-9.50664
复	-9.50712
跨国	-9.50855
愤怒	-9.50877
廉价	-9.5088
包含	-9.50882
指导	-9.50892
与其	-9.50902
改	-9.51062
有了	-9.51121
▁自	-9.51153
唯一	-9.51345
审	-9.51377
儿	-9.51377
乐	-9.51389
养	-9.51398
海洋	-9.51414
早期	-9.51467
欢迎	-9.51468
il	-9.51486
的东西	-9.51519
劳	-9.5165
ol	-9.51894
瑞典	-9.51945
东欧	-9.51979
的压力	-9.51982
领域的	-9.52021
ra	-9.52033
清楚	-9.5206
准确	-9.52182
待	-9.52255
将继续	-9.52313
流动	-9.52335
居民	-9.52347
朝	-9.52399
测试	-9.52442
▁诚然	-9.5248
荷兰	-9.52482
的重要性	-9.52495
条款	-9.52499
言论	-9.52517
的地方	-9.52519
2006	-9.52521
东亚	-9.52531
满	-9.52658
议程	-9.52845
铁	-9.52983
脱	-9.52984
怀	-9.53013
委内瑞拉	-9.5302
板	-9.53021
院	-9.53021
协助	-9.53023
短缺	-9.53027
▁只有	-9.5304
边界	-9.53042
伟大	-9.53048
绝对	-9.53049
著名	-9.53051
手中	-9.53086
达到了	-9.53091
看起来	-9.53112
极为	-9.53134
独裁	-9.5317
17	-9.53414
比率	-9.53488
有利	-9.53502
下去	-9.53518
默	-9.53559
盛	-9.53564
伯	-9.53564
特殊	-9.53567
深刻	-9.53578
一家	-9.53584
决心	-9.53607
的基础	-9.53659
患者	-9.53668
中国在	-9.53753
的变化	-9.53758
以此	-9.53798
放在	-9.53803
但它	-9.53836
采取了	-9.54026
城	-9.54093
加拿大	-9.5411
客户	-9.54115
安倍	-9.54154
考虑到	-9.54232
发电	-9.54267
减速	-9.54326
决	-9.54397
的时间	-9.54651
推行	-9.54655
杠杆	-9.5466
尚未	-9.54677
服	-9.54788
欧盟成员国	-9.54812
准	-9.54852
高级	-9.54979
抗	-9.55046
越来越多的	-9.5505
结构性	-9.55099
管制	-9.55198
渠道	-9.55212
杰	-9.55213
▁of	-9.55215
相同	-9.5533
月份	-9.55409
之下	-9.55563
it	-9.55592
农村	-9.55665
法案	-9.55667
监管者	-9.55675
之上	-9.55712
张	-9.55737
硬	-9.55741
入侵	-9.55768
药物	-9.55801
参加	-9.55831
轻	-9.55955
的生活	-9.5597
东西	-9.55998
的速度	-9.56014
组合	-9.56059
亿美元的	-9.56066
过程中	-9.56103
▁《	-9.56128
很快	-9.56143
即使是	-9.56164
不要	-9.56185
越南	-9.56186
遗	-9.56257
的关系	-9.56283
呼	-9.56326
释放	-9.56334
突然	-9.56339
还需要	-9.56424
出于	-9.56494
产生了	-9.56527
的例子	-9.56581
义务	-9.56583
▁今天	-9.56591
观察	-9.56592
业务	-9.56594
陷入了	-9.56645
前所未有的	-9.56647
太阳能	-9.56888
也是如此	-9.56926
在全球	-9.56987
公约	-9.56993
的威胁	-9.57127
正常	-9.57321
配	-9.57372
尚	-9.57435
诊断	-9.57459
涉及	-9.57475
中间	-9.5751
学院	-9.57515
她们	-9.57609
要比	-9.57625
族	-9.57646
人们对	-9.5766
座	-9.57671
近期	-9.57671
过于	-9.57809
序	-9.5782
油价	-9.57873
投资于	-9.57875
仍然是	-9.57915
地方政府	-9.57959
器	-9.57984
埃尔多安	-9.58021
煤炭	-9.58021
兼	-9.58022
消失	-9.58041
注意力	-9.58052
首次	-9.58077
人数	-9.58286
身上	-9.583
和政治	-9.58318
一代	-9.58369
可能导致	-9.58393
▁上述	-9.5844
▁即	-9.58469
变成	-9.58494
已经开始	-9.58518
组	-9.58521
慢	-9.58589
埃博拉	-9.58593
覆盖	-9.58594
实验	-9.58594
欧洲国家	-9.58623
例子	-9.58643
由此	-9.58706
年度	-9.58849
现代化	-9.58849
更有	-9.58922
金融体系	-9.58942
这些问题	-9.5898
双	-9.59058
升高	-9.59096
血	-9.59138
省	-9.5915
几个月	-9.5916
肯尼亚	-9.59168
紧急	-9.5918
名义	-9.59202
▁同时	-9.5926
让人	-9.59395
仅仅是	-9.59468
工业化	-9.59614
位于	-9.59626
▁特朗普	-9.59669
哪	-9.5968
的措施	-9.59699
意识形态	-9.59745
专业	-9.59754
员工	-9.59788
纳入	-9.59855
所需的	-9.5989
任命	-9.59987
让他们	-9.60009
排	-9.60033
废	-9.60081
惊	-9.60085
体现	-9.60108
来看	-9.60121
不平等性	-9.60193
而不	-9.6024
无疑	-9.60265
示	-9.60285
透明	-9.60296
政治家	-9.60301
灾	-9.60302
的后果	-9.60321
麦	-9.60323
晚	-9.60327
矛盾	-9.60327
愿景	-9.60332
暂时	-9.60335
另	-9.60381
另一方面	-9.60431
治	-9.60463
的历史	-9.60529
说服	-9.60642
▁实际上	-9.60654
兴	-9.60673
当中	-9.60731
已经在	-9.60882
一名	-9.60893
抗议	-9.6094
不受	-9.60981
法治	-9.60992
公正	-9.61254
自由化	-9.61442
台湾	-9.61507
住房	-9.61512
森林	-9.61519
违反	-9.6152
超越	-9.61543
1990	-9.61565
2020	-9.61587
一国	-9.61613
的成本	-9.61629
帝国	-9.6168
私人部门	-9.61696
巨	-9.6179
单一	-9.61797
对待	-9.61923
1%	-9.61942
务	-9.61955
温	-9.61956
也应该	-9.62
佛	-9.62092
共产主义	-9.62092
迹象	-9.62095
哪些	-9.62098
操作	-9.62107
两者	-9.62142
的危险	-9.62299
财政政策	-9.62315
房	-9.62413
人物	-9.62419
会导致	-9.62438
男	-9.6249
冲	-9.62665
退休	-9.62668
信誉	-9.62699
职业	-9.62733
不管是	-9.6282
的反应	-9.62851
除非	-9.62867
ne	-9.62884
的权利	-9.63083
都没有	-9.63099
卫	-9.63237
集中在	-9.63255
的事情	-9.63264
逐	-9.63267
的事实	-9.63281
阵营	-9.6329
回答	-9.63291
过渡	-9.6332
否认	-9.63356
问题在于	-9.63454
望	-9.63483
二氧化碳	-9.63521
的态度	-9.63554
回应	-9.63583
社	-9.63647
实现了	-9.63651
字	-9.63719
各自	-9.63852
扭曲	-9.63888
葡萄牙	-9.63888
叫	-9.63888
相似	-9.63899
季度	-9.63911
▁F	-9.63931
ed	-9.63976
一直是	-9.63999
的任务	-9.64
声称	-9.64038
非洲国家	-9.64051
年中	-9.64108
参	-9.64155
欧洲议会	-9.64186
的理由	-9.64199
的成功	-9.64202
ce	-9.64271
称为	-9.6435
一下	-9.64406
这两个	-9.64427
人均	-9.64452
拉丁美洲	-9.64494
冰	-9.64494
奖	-9.64494
恐慌	-9.64494
麻烦	-9.64495
疲软	-9.64497
16	-9.64533
交通	-9.6454
中国人	-9.64581
注	-9.64693
比重	-9.64703
高效	-9.64708
的崛起	-9.64776
▁如	-9.64786
形	-9.6481
个体	-9.64843
在今年	-9.64865
是美国	-9.64867
可信	-9.64923
的最佳	-9.64971
的地位	-9.64989
因为他们	-9.64996
一套	-9.65003
聚	-9.65087
受害者	-9.65104
抵消	-9.65108
孤立	-9.6511
某	-9.65127
▁并且	-9.65138
建筑	-9.65278
合理的	-9.65376
离开	-9.6552
二战	-9.6567
邦	-9.65708
哈马斯	-9.65718
认定	-9.65746
更好	-9.65754
但在	-9.6602
意愿	-9.66024
到目前为止	-9.66059
的说法	-9.66069
说明	-9.66137
保障	-9.66142
获	-9.66189
迷	-9.66282
基金会	-9.66299
谨慎	-9.66335
共和国	-9.66337
出售	-9.66375
2004	-9.66378
偿还	-9.66391
想法	-9.66421
益	-9.66455
式的	-9.66657
容	-9.66679
患	-9.66836
角度	-9.6688
枪	-9.66956
不稳定	-9.6702
灾难性	-9.67028
法庭	-9.67099
反对派	-9.6712
▁也许	-9.67156
互	-9.67176
没能	-9.67283
li	-9.67292
3%	-9.6731
付	-9.67367
刻	-9.67422
景	-9.67435
创造了	-9.67438
师	-9.67534
迟	-9.67548
石	-9.67549
大陆	-9.67568
打破	-9.676
的行动	-9.67614
额外	-9.67702
费用	-9.67782
美国政府	-9.67842
此次	-9.6794
终于	-9.67968
机器	-9.68009
的好处	-9.6802
何	-9.68033
设施	-9.68036
其他人	-9.68073
梦	-9.68175
经合组织	-9.68209
怎么	-9.6821
抗生素	-9.6821
逻辑	-9.6821
渴望	-9.68211
警察	-9.68216
逆转	-9.6822
存款	-9.6822
指控	-9.68222
不可持续	-9.68507
明年	-9.68509
唯一的	-9.68561
病毒	-9.68614
在线	-9.68643
常规	-9.68712
股	-9.68749
红	-9.68804
有能力	-9.68824
摧毁	-9.68843
抓住	-9.68846
外汇储备	-9.68849
消灭	-9.68851
暴露	-9.68852
困扰	-9.68879
发生在	-9.68884
些	-9.68895
版	-9.68898
全新	-9.6896
都要	-9.68963
200	-9.68975
中所	-9.69073
设	-9.69096
2030	-9.69099
的代价	-9.69114
系	-9.69156
富裕	-9.69194
测	-9.69412
办	-9.6942
含	-9.69461
证券	-9.69483
放松	-9.69491
期望	-9.69515
良	-9.69527
例如	-9.69544
▁不管	-9.69695
并将	-9.69767
给了	-9.69829
动作	-9.69872
新兴	-9.69886
的角色	-9.69918
反映	-9.69947
对欧洲	-9.69953
许	-9.70066
毁	-9.70115
严峻	-9.70121
试验	-9.70121
感染	-9.70127
推翻	-9.70135
较低	-9.70213
部署	-9.70315
无力	-9.70352
很多人	-9.70487
也许是	-9.70566
金融稳定	-9.70584
王	-9.70661
消息	-9.70712
折	-9.70763
脚	-9.70766
激烈	-9.70769
财务	-9.70772
股东	-9.70784
10%	-9.70804
St	-9.70817
动机	-9.70819
声明	-9.7083
亿人	-9.70866
第一次	-9.7089
大萧条	-9.709
范围内	-9.70911
的经验	-9.71002
▁在美国	-9.71085
也不会	-9.71118
内战	-9.71132
另外	-9.71191
各方	-9.71237
~	-9.71415
利比亚	-9.71415
帕	-9.71416
突破	-9.7142
浪费	-9.71421
国防	-9.71478
为此	-9.71563
没有什么	-9.71572
失去了	-9.71607
对外	-9.71665
绝大多数	-9.71668
青年	-9.71675
之路	-9.71704
总量	-9.71711
的担忧	-9.71721
参与者	-9.71732
弹	-9.71747
斯特	-9.7176
▁今年	-9.71829
▁这样的	-9.71994
脑	-9.72033
坐	-9.72054
以后	-9.72058
纷纷	-9.72069
循环	-9.7207
功能	-9.72124
以下	-9.7261
赶	-9.72713
乏	-9.72718
菲律宾	-9.72727
默克尔	-9.72727
皇	-9.72727
积累	-9.7273
资助	-9.72746
密切	-9.72748
保留	-9.72766
主流	-9.72823
拿	-9.72896
这种情况	-9.72982
副	-9.73042
小时	-9.73083
选项	-9.73266
跌	-9.73278
判	-9.73346
辞	-9.73373
留在	-9.73382
垄断	-9.73389
遵守	-9.7339
烟草	-9.73393
完美	-9.73405
逐步	-9.73408
相关的	-9.73423
发起	-9.73468
下来	-9.73495
根源	-9.73504
加以	-9.73508
运作	-9.7351
领导的	-9.73551
争取	-9.73602
开发银行	-9.7368
需	-9.73792
群	-9.73987
谋	-9.74045
盖	-9.74051
更不用说	-9.74055
黎巴嫩	-9.74056
丧失	-9.74065
深远	-9.74131
不论	-9.74178
要素	-9.74213
13	-9.74532
在很大程度上	-9.74542
也可能	-9.74549
经济危机	-9.74556
us	-9.74558
跨	-9.74614
严	-9.74634
顺	-9.74687
烟	-9.74717
问责	-9.74734
更快	-9.74786
本人	-9.74791
以便	-9.74791
的法律	-9.74844
更好地	-9.74928
其他地方	-9.75021
只会	-9.75028
组成	-9.75038
影响到	-9.75139
吸收	-9.75139
始	-9.7524
的责任	-9.75298
避	-9.75334
休	-9.75392
朋友	-9.75402
所在	-9.75411
下降到	-9.75463
但他们	-9.75477
的力量	-9.75499
第四	-9.75527
亿欧元	-9.75562
的立场	-9.75562
客	-9.75568
已经成为	-9.75618
经过	-9.75636
不利	-9.75665
特定	-9.75686
行政	-9.75866
举行的	-9.76001
借贷	-9.76047
灭	-9.76062
航	-9.76063
兵	-9.76071
齐	-9.76076
频	-9.7608
盘	-9.76081
谴责	-9.76083
谷歌	-9.76085
宽松	-9.76085
契约	-9.76095
流向	-9.76238
最初	-9.76266
之时	-9.76665
也必须	-9.76675
落后	-9.76715
显而易见的	-9.76729
全球性	-9.76742
逃	-9.76743
母	-9.76751
抱	-9.76765
尼日利亚	-9.76767
科索沃	-9.76767
皮	-9.76768
份额	-9.7678
获取	-9.76792
ad	-9.76795
将成为	-9.76875
整	-9.76876
每天	-9.76929
196	-9.7698
告诉	-9.77126
愿	-9.77333
赛	-9.7735
享受	-9.77352
流行	-9.77356
坚	-9.77398
角	-9.77402
壁垒	-9.77457
称之为	-9.77458
仍有	-9.77504
引导	-9.77538
税率	-9.77587
还能	-9.77743
不足以	-9.77781
人群	-9.77812
根本不	-9.77842
她的	-9.77848
新技术	-9.77916
不必	-9.77945
账户	-9.78107
占领	-9.78154
减轻	-9.78166
获胜	-9.7818
优先	-9.78184
南部	-9.78219
例外	-9.7822
用户	-9.78246
元	-9.78253
年龄	-9.78266
英国退欧	-9.78291
中期	-9.78303
th	-9.78327
议员	-9.78416
▁不过	-9.78523
以及其他	-9.78538
▁换句话说	-9.78584
明确的	-9.78598
汇	-9.78631
拿出	-9.78671
构	-9.78679
控	-9.78786
▁第三	-9.7882
柏林	-9.78852
设备	-9.7886
建立一个	-9.7886
缓解	-9.78862
与中国	-9.78875
艰难	-9.78913
深入	-9.78957
会议上	-9.78981
更具	-9.79036
留下	-9.79149
增长模式	-9.79173
目的是	-9.79235
K	-9.79241
急需	-9.79308
思	-9.79356
经济衰退	-9.79364
伊斯兰教	-9.79367
降低了	-9.79379
▁在过去	-9.79398
户	-9.79446
真相	-9.79478
保护主义	-9.79513
亡	-9.79535
试	-9.79535
室	-9.79548
症	-9.7955
冒	-9.79552
减税	-9.79617
游	-9.79624
可持续发展	-9.79687
反而	-9.79702
医学	-9.79742
年底	-9.79864
太多	-9.79961
成功地	-9.79999
某个	-9.80082
发达	-9.80142
短	-9.80146
星	-9.80193
▁鉴于	-9.80193
食	-9.80224
▁只要	-9.80237
顶	-9.80251
湾	-9.80256
唐纳德	-9.80265
运行	-9.80269
接触	-9.80272
饱受	-9.80274
第二个	-9.80369
总额	-9.80395
经济复苏	-9.80519
毒品	-9.80539
中共	-9.80588
la	-9.80634
担保	-9.80636
程	-9.8074
伙伴关系	-9.8077
不够	-9.80883
穷	-9.80941
苏	-9.80956
露	-9.80967
吃	-9.80979
这么	-9.80992
坚定	-9.81014
致命	-9.81042
深度	-9.81069
制约	-9.81088
团	-9.81206
▁这就是	-9.81411
可靠	-9.81612
影	-9.81672
幸	-9.81676
虚	-9.81684
霍	-9.81686
赋予	-9.81699
酒	-9.81699
立刻	-9.81711
恐怖分子	-9.81714
小组	-9.81762
残	-9.81809
良好的	-9.81837
圣	-9.81848
不少	-9.81867
排除	-9.8194
长期以来	-9.81993
银行家	-9.82035
布什政府	-9.82062
最好	-9.82068
徒	-9.82231
加大	-9.82332
▁显然	-9.82374
附	-9.82377
补	-9.82398
环	-9.82401
能让	-9.82403
兹	-9.82423
防御	-9.82423
ation	-9.82432
各个	-9.82439
就连	-9.82771
的最新	-9.82801
认	-9.82882
薪	-9.83152
结核病	-9.83153
情形	-9.83172
兑现	-9.8319
多么	-9.83256
主权债务	-9.8326
多大	-9.8326
导向	-9.83262
男性	-9.83395
到底	-9.83437
根本性	-9.83454
所以	-9.8346
在国际	-9.8363
德里	-9.83668
是由	-9.83713
幅度	-9.83726
中有	-9.83767
动物	-9.83775
读	-9.83853
un	-9.83863
痛	-9.83883
专注于	-9.83888
雨	-9.83888
▁幸运的是	-9.83889
途径	-9.8389
销售	-9.83893
日渐	-9.83901
可能性	-9.83935
响应	-9.83948
下滑	-9.83957
该计划	-9.84045
也能	-9.84072
数百万	-9.84074
成长	-9.84133
整合	-9.84182
但它们	-9.84189
不太可能	-9.84194
一个国家	-9.84211
▁K	-9.84218
财	-9.84218
邻	-9.84254
此后	-9.84315
世界各地	-9.84352
使其	-9.84355
房价	-9.84403
幅	-9.84405
陆	-9.84454
修	-9.84559
破	-9.84567
固	-9.84572
运用	-9.84625
’	-9.84629
佩	-9.84629
悲剧	-9.84632
形象	-9.84638
移动	-9.84658
认真	-9.8466
接着	-9.84669
受到了	-9.84684
2003	-9.847
区别	-9.84708
负面	-9.84739
是什么	-9.84797
可持续性	-9.84843
学者	-9.8488
泰国	-9.84929
生产力	-9.85006
面前	-9.85066
他在	-9.85127
一开始	-9.85136
那个	-9.85251
脱离	-9.85268
都能	-9.8531
误	-9.85357
约翰	-9.85372
剂	-9.85375
考验	-9.85375
敏感	-9.85382
信仰	-9.85386
资产价格	-9.85399
改进	-9.85402
时代的	-9.85418
资本市场	-9.85421
到来	-9.85429
主要是	-9.85485
机器人	-9.85659
能在	-9.85713
复杂的	-9.85845
剧	-9.8607
灵	-9.86102
领导者	-9.86125
三分之一	-9.86127
显得	-9.86129
阶级	-9.8613
还将	-9.86141
投机	-9.86157
动员	-9.86167
距离	-9.86174
觉得	-9.86179
0	-9.8618
财政部长	-9.86234
示威	-9.86265
不应	-9.8637
很有可能	-9.86377
吸	-9.86382
300	-9.86384
选举中	-9.86482
建立了	-9.866
电子	-9.86651
没人	-9.86697
从事	-9.86752
组成的	-9.86772
移	-9.86805
藏	-9.86858
▁...	-9.86884
欠	-9.86884
玛	-9.86885
共享	-9.86886
重塑	-9.86887
补偿	-9.86888
死刑	-9.86896
彼此	-9.86899
丰富	-9.86903
古巴	-9.86928
那种	-9.86979
绝非	-9.86982
教育和	-9.87198
自由贸易	-9.87297
还必须	-9.8732
这样一个	-9.87454
提出的	-9.87461
边缘	-9.87541
希	-9.87642
惨	-9.87645
欲	-9.87648
埃塞俄比亚	-9.87648
堡	-9.87648
旗	-9.87648
疟疾	-9.87648
急剧	-9.87657
伦理	-9.87675
选票	-9.8768
固定	-9.87683
纠正	-9.87692
性别	-9.87723
出生	-9.87741
普及	-9.87784
观念	-9.87878
都必须	-9.87897
包容	-9.88179
的基本	-9.8818
一些国家	-9.88246
生活水平	-9.88292
划	-9.88366
低利率	-9.88396
暗	-9.884
怪	-9.88405
木	-9.88417
蔓延	-9.88417
游戏	-9.88419
强势	-9.88471
施加	-9.88497
即使在	-9.88534
事业	-9.88562
延长	-9.8864
引发了	-9.88704
物种	-9.88826
宏观	-9.89018
35	-9.89047
退欧	-9.8906
软	-9.89152
隐	-9.89172
婚	-9.89184
燃料	-9.89185
扎	-9.89192
陷阱	-9.89192
骗	-9.89192
反过来	-9.89193
关闭	-9.89195
规范	-9.89198
复兴	-9.89202
经济政策	-9.89203
文章	-9.89209
融入	-9.89209
权威	-9.89278
结果是	-9.893
战斗	-9.89413
者们	-9.89477
om	-9.89718
实体	-9.8977
所有人都	-9.89774
赞	-9.89875
不需要	-9.89911
义	-9.8992
招	-9.89972
贯	-9.89973
昂贵	-9.89975
授权	-9.89984
导弹	-9.89985
顾问	-9.89986
设立	-9.89987
判断	-9.89988
情报	-9.90014
保守党	-9.90128
富人	-9.90186
物质	-9.90196
国有	-9.90248
的巨大	-9.90252
可靠的	-9.90357
世界各国	-9.90443
富有	-9.90444
却是	-9.90446
应该是	-9.90488
24	-9.90492
一方面	-9.90572
国家安全	-9.9059
刑	-9.90706
苦	-9.90737
严厉	-9.9076
淡	-9.90761
▁简言之	-9.90761
匈牙利	-9.90761
看上去	-9.90761
僵局	-9.90765
充足	-9.90766
领导层	-9.90807
发明	-9.90816
道理	-9.90826
的效果	-9.90828
很容易	-9.90834
落实	-9.90855
出资	-9.91015
因为它们	-9.91143
发出	-9.91162
欧洲领导人	-9.91186
合同	-9.91228
以外	-9.91264
文明	-9.91286
署	-9.91312
灵活	-9.91365
拥	-9.91483
雅	-9.91545
捕	-9.91547
穆	-9.91552
塞尔维亚	-9.91554
乌	-9.91555
句	-9.91555
墙	-9.91555
牢	-9.91555
艾	-9.91555
抛弃	-9.91557
步骤	-9.91564
注入	-9.91601
法官	-9.91606
加沙	-9.91612
人道主义	-9.91613
历	-9.91617
适用于	-9.91647
分别	-9.91679
临时	-9.91679
重视	-9.91688
便是	-9.91689
解放	-9.91722
这个国家	-9.91804
加上	-9.91832
他人	-9.91868
学术	-9.91933
研究表明	-9.92326
迁	-9.92331
账	-9.92349
喜	-9.92352
披露	-9.92355
纳税人	-9.92356
毁灭	-9.92361
医院	-9.92362
修改	-9.92362
声音	-9.92368
何种	-9.92379
群众	-9.92401
2002	-9.92413
滥用	-9.9244
自动化	-9.92453
有效地	-9.92518
经济表现	-9.92617
引起了	-9.92637
战后	-9.92648
开展	-9.92722
医	-9.92761
最好的	-9.92838
转移到	-9.92903
坦	-9.93024
拖	-9.93152
!	-9.93161
补充	-9.93164
完整	-9.93165
纳粹	-9.93166
分享	-9.93169
讲话	-9.93183
持久	-9.93185
演讲	-9.93189
超级	-9.93195
创业	-9.93204
的道路	-9.93257
职位	-9.9326
ac	-9.93268
解决问题	-9.93324
执	-9.93358
与此同时	-9.93488
凯恩斯	-9.93637
速	-9.93676
性质	-9.93762
超过了	-9.93875
季	-9.93944
累	-9.9395
恰恰	-9.93965
个百分点	-9.93974
歧视	-9.93974
英镑	-9.93974
苏格兰	-9.93974
卢	-9.93974
乔治	-9.93977
融合	-9.93981
配置	-9.93987
推迟	-9.94
缺口	-9.94002
沙特	-9.94042
具	-9.94144
英国脱欧	-9.94166
▁欧洲的	-9.9419
但其	-9.94362
的基础上	-9.94383
多年来	-9.94421
领导力	-9.94438
因为这	-9.94444
▁当时	-9.94475
展	-9.94571
突	-9.94589
购	-9.94763
卡梅伦	-9.94794
驻	-9.94795
瑞士	-9.948
修正	-9.94834
8%	-9.94903
ul	-9.94996
人才	-9.95019
牌	-9.95035
上个月	-9.95142
▁除非	-9.95142
没有任何	-9.95232
原本	-9.95258
我们应该	-9.9528
4%	-9.95281
23	-9.95321
意识	-9.95322
在一起	-9.95395
著	-9.9554
朗	-9.95586
袭	-9.95608
筹	-9.9561
教授	-9.95625
宣言	-9.95634
合适	-9.95649
期待	-9.95672
领先	-9.95681
清算	-9.95689
的错误	-9.95692
重要性	-9.95767
敌人	-9.95789
位置	-9.9583
至少在	-9.95982
南海	-9.95988
四个	-9.96104
可行	-9.96206
这位	-9.96315
不愿意	-9.96382
币	-9.96383
料	-9.96395
自动	-9.96415
返	-9.96454
煽动	-9.96455
催生	-9.96461
沉重	-9.96492
透明度	-9.96496
反弹	-9.96532
最佳	-9.96723
不存在	-9.96764
涨	-9.96796
在这方面	-9.97096
萧条	-9.97119
为例	-9.97134
其他地区	-9.97259
讨	-9.97265
剑桥	-9.97294
转化为	-9.97295
信念	-9.973
评级	-9.97305
孟加拉国	-9.97327
1980	-9.97366
倾向于	-9.97396
相应	-9.97421
背景下	-9.97551
富裕国家	-9.97672
不如	-9.97688
毫无疑问	-9.97689
劳动者	-9.97723
标	-9.97759
基础设施投资	-9.97817
二十年	-9.97872
裂	-9.97875
破坏性	-9.98036
觉	-9.9805
怒	-9.9814
龙	-9.98142
以至于	-9.98143
物价	-9.98144
席位	-9.98157
软实力	-9.9816
ti	-9.98195
前任	-9.98249
7%	-9.98284
前提	-9.98443
几十年来	-9.98495
长时间	-9.98522
巴勒斯坦人	-9.98535
金融部门	-9.98583
域	-9.9862
ir	-9.98648
传染	-9.98661
围	-9.98815
▁这是一个	-9.98821
就越	-9.98867
良好	-9.98903
访	-9.98979
1997	-9.98996
胡	-9.98996
形成了	-9.98999
象征	-9.99002
机遇	-9.99004
武力	-9.99023
结合	-9.99029
消极	-9.99031
予以	-9.99034
运转	-9.9904
ity	-9.9904
ss	-9.99058
这里	-9.9914
外界	-9.99234
岗位	-9.99239
这些人	-9.99254
低碳	-9.99268
类型	-9.99285
上海	-9.99306
变得更	-9.99325
随之	-9.99337
上限	-9.99423
▁在这方面	-9.99481
对欧盟	-9.99507
工党	-9.99578
400	-9.99582
大多	-9.99658
泛	-9.99702
病人	-9.99707
受欢迎	-9.99769
丹	-9.99846
金砖国家	-9.99858
纠纷	-9.99858
签订	-9.99859
填补	-9.99859
多样化	-9.99859
冒险	-9.99862
终结	-9.99873
成熟	-9.99877
6%	-9.99891
才会	-9.99891
显而易见	-9.99907
今后	-9.99944
沦为	-9.99953
高昂	-9.99978
使命	-10.0001
财政赤字	-10.0002
两种	-10.001
被认为是	-10.0018
将导致	-10.0022
▁Re	-10.0032
的最大	-10.0032
欧盟国家	-10.0039
加剧了	-10.0041
延	-10.0047
鲜	-10.0055
犹太人	-10.0065
相对于	-10.0066
介	-10.0069
船	-10.0073
脏	-10.0073
画	-10.0073
阶层	-10.0073
▁for	-10.0073
沙特阿拉伯	-10.0074
首脑	-10.0075
情景	-10.0075
资格	-10.0076
预见	-10.0076
其自身	-10.0081
一些人	-10.0083
大众	-10.0109
功	-10.011
英国退出	-10.0114
出现在	-10.0115
▁所以	-10.012
行长	-10.013
威胁到	-10.0134
▁但我们	-10.0141
你们	-10.0142
背	-10.0148
没有人	-10.0149
北欧	-10.0153
伊斯兰国	-10.0157
兴趣	-10.0158
考	-10.0159
守	-10.0159
突尼斯	-10.016
膨胀	-10.016
田	-10.0161
戴	-10.0161
扭转	-10.0161
讽刺	-10.0161
3⁄4	-10.0161
丑闻	-10.0161
主宰	-10.0161
审查	-10.0162
起诉	-10.0164
正义	-10.0166
二十世纪	-10.0173
出台	-10.0175
流入	-10.0179
已有	-10.0185
适	-10.0188
做出了	-10.0198
是否会	-10.02
来讲	-10.0201
有望	-10.0207
也不是	-10.0207
温室气体排放	-10.021
遭	-10.0211
弱势	-10.0215
后来	-10.0227
▁考虑到	-10.0243
煤	-10.0249
静	-10.0249
诱	-10.0249
请	-10.0249
引擎	-10.0249
奥地利	-10.0249
忧虑	-10.0249
赚	-10.0249
监控	-10.0249
构成了	-10.0251
推广	-10.0253
互动	-10.0253
保罗	-10.0253
利息	-10.0256
证据表明	-10.0258
交流	-10.0259
这一切	-10.0262
所产生的	-10.0274
深化	-10.0277
处在	-10.0282
传染病	-10.0284
智能	-10.0287
智	-10.0293
背后的	-10.0302
青	-10.0303
27	-10.031
庞大的	-10.0316
但这	-10.0324
清洁	-10.0333
让人们	-10.0335
阿萨德	-10.0338
申请	-10.0338
拖累	-10.0339
干涉	-10.0339
悲观	-10.0339
企业家	-10.034
看似	-10.034
压倒	-10.0341
存在着	-10.0341
盟	-10.0342
否决	-10.0347
弱点	-10.0348
分散	-10.035
自然资源	-10.035
在去年	-10.0351
批评者	-10.0366
保守	-10.0367
家族	-10.0377
ter	-10.0378
都可以	-10.0395
闻	-10.0409
无可	-10.0415
积	-10.0418
国债	-10.0418
与其他	-10.0425
什	-10.0426
翻	-10.0426
扣	-10.0428
马克龙	-10.0428
纪念	-10.0429
更重要的是	-10.0429
苏丹	-10.0429
秘密	-10.0429
奇怪	-10.0429
可行的	-10.0431
焦点	-10.0431
南欧	-10.0436
ec	-10.0441
一边	-10.0445
自由民主	-10.0448
2050	-10.0458
立即	-10.0467
实施了	-10.0467
得不到	-10.0469
▁但这些	-10.0472
已成为	-10.0477
背后	-10.0477
无论是	-10.0485
的过程中	-10.0488
至今	-10.0488
肯	-10.0516
诚	-10.0516
探	-10.0518
哥本哈根	-10.0519
衣	-10.0519
众议院	-10.0519
丽	-10.0519
租	-10.0519
凯	-10.0519
艺术	-10.0519
偿付	-10.052
霸权	-10.0522
生态系统	-10.0523
注定	-10.0524
专制	-10.0524
.5%	-10.0524
巨头	-10.0525
花费	-10.0525
伴随着	-10.0525
不久前	-10.0527
预算赤字	-10.0529
结构性改革	-10.0531
最多	-10.0534
不平衡	-10.0537
公共部门	-10.0542
与欧盟	-10.0543
是错误的	-10.0547
意外	-10.0552
确认	-10.0558
很高	-10.0558
推出	-10.0559
▁如果我们	-10.056
三十年	-10.057
顾	-10.0571
团队	-10.0576
ion	-10.0591
建立在	-10.0597
般	-10.0598
一段时间	-10.0601
甚至是	-10.0601
犹	-10.0609
敢	-10.0611
敦促	-10.0611
伪	-10.0611
侧	-10.0611
榜样	-10.0611
诱惑	-10.0611
审慎	-10.0611
倒闭	-10.0611
乃至	-10.0612
世俗	-10.0612
难题	-10.0612
工厂	-10.0612
政变	-10.0618
近年来	-10.0621
ig	-10.0622
加快	-10.0622
对立	-10.0625
发放	-10.0626
平民	-10.0643
20%	-10.0643
重重	-10.0657
以确保	-10.0658
便利	-10.0659
全球金融危机	-10.0671
减排	-10.0672
系统性	-10.068
自由主义	-10.0686
志	-10.0699
音	-10.0701
继	-10.0703
老龄化	-10.0704
彩	-10.0704
害怕	-10.0704
消耗	-10.0704
连续	-10.0704
暴跌	-10.0705
广告	-10.0705
电影	-10.0706
面积	-10.0707
等待	-10.072
单一市场	-10.0721
前进	-10.0725
促成	-10.0726
总需求	-10.0735
只有在	-10.0736
会带来	-10.0738
恰当	-10.075
提议	-10.0752
▁毫无疑问	-10.0753
形式的	-10.0756
三年	-10.0757
明智	-10.0757
削弱了	-10.0758
的比例	-10.0758
马上	-10.0759
环境中	-10.0764
也同样	-10.0767
民粹主义者	-10.0768
为基础的	-10.0774
在英国	-10.0777
一部分	-10.0779
亚洲国家	-10.0781
太平洋	-10.0797
横	-10.0797
餐	-10.0797
训练	-10.0797
完善	-10.0798
西藏	-10.08
漫长	-10.08
这一观点	-10.0803
热情	-10.0804
公布	-10.0811
im	-10.0822
庞大	-10.0829
此类	-10.0845
提到	-10.0862
不仅是	-10.0862
这两	-10.0867
之一是	-10.087
财政部	-10.0877
这条	-10.0878
抵押	-10.0887
委	-10.0889
纸	-10.089
两次	-10.0891
荣	-10.0891
鱼	-10.0891
艰巨	-10.0892
还可以	-10.0894
电脑	-10.0894
收缩	-10.0895
过剩	-10.0895
实现这一目标	-10.0898
走上	-10.09
全民	-10.0903
数十年	-10.0911
极端主义	-10.0912
的看法	-10.0935
社会主义	-10.0936
提高了	-10.0938
他们所	-10.0942
危机爆发	-10.0943
▁但这一	-10.0953
化学	-10.0957
ill	-10.0963
必然	-10.0966
先进	-10.0975
极其	-10.0978
友	-10.0981
倾向	-10.0981
美国和欧洲	-10.0982
生态	-10.0985
仇	-10.0986
康	-10.0987
j	-10.0987
鼓吹	-10.0987
崩盘	-10.0987
中国人民银行	-10.0987
跨境	-10.0988
近几年来	-10.099
英格兰银行	-10.099
药品	-10.0992
梦想	-10.0992
地说	-10.0995
两倍	-10.0999
欧洲大陆	-10.1002
外围国	-10.1003
借款人	-10.1005
通胀率	-10.1007
Al	-10.1015
做法	-10.1021
变成了	-10.1032
忽略	-10.1042
超出	-10.1045
政府债券	-10.105
大胆	-10.1051
过多	-10.1057
▁这将	-10.107
沉	-10.1078
树	-10.1082
惠	-10.1082
挤	-10.1083
迄今为止	-10.1083
阻挠	-10.1083
笑	-10.1083
慈善	-10.1083
延续	-10.1083
挪威	-10.1083
残酷	-10.1083
基本上	-10.1083
丹麦	-10.1084
高企	-10.1085
印尼	-10.1089
一天	-10.1091
物理	-10.1091
绝不	-10.1093
鉴于	-10.1096
再平衡	-10.1098
▁这也是	-10.1098
也不能	-10.1108
案件	-10.1112
阿拉伯世界	-10.1113
结构改革	-10.1119
并不能	-10.112
实体经济	-10.1122
惊人	-10.1122
首要	-10.1125
如果没有	-10.1128
尤	-10.1132
万亿	-10.1133
不可避免	-10.1143
承	-10.1157
校	-10.1157
赢得了	-10.1175
1.5	-10.1175
松	-10.1177
曲	-10.118
一带一路	-10.118
即将到来的	-10.118
绝望	-10.1182
遗产	-10.1182
果断	-10.1182
认可	-10.1183
最严重的	-10.1183
口号	-10.1184
战胜	-10.1186
证实	-10.1188
单位	-10.1188
空气	-10.119
动摇	-10.1196
解体	-10.1197
罗马	-10.1198
2018	-10.1201
28	-10.1213
和解	-10.1223
尽可能	-10.123
几乎没有	-10.1235
特点	-10.1237
故	-10.1266
诉	-10.1272
混	-10.1274
纪	-10.1276
肉	-10.1277
封	-10.1277
吞	-10.1278
无人机	-10.1278
按揭	-10.1278
零售	-10.1279
收集	-10.1283
工作岗位	-10.1288
效益	-10.129
取得成功	-10.1296
十年前	-10.1304
隔	-10.1306
废除	-10.132
进化	-10.1324
快速增长	-10.1328
ate	-10.1329
进而	-10.1332
会产生	-10.1332
不久	-10.1339
大银行	-10.1345
就需要	-10.135
缓	-10.1353
大会	-10.1353
采	-10.1354
man	-10.1365
佳	-10.1366
份	-10.1367
做得	-10.1371
早就	-10.1373
穿	-10.1375
中美	-10.1375
草	-10.1375
赖	-10.1377
牛	-10.1377
华尔街	-10.1377
参议院	-10.1377
掩盖	-10.1377
80%	-10.138
计算机	-10.138
野心	-10.1381
民主制度	-10.1382
偏好	-10.1389
极大	-10.1398
ab	-10.1399
这笔	-10.1409
更多地	-10.1412
AI	-10.1414
站在	-10.1417
明智的	-10.1422
碳排放	-10.1426
所做的	-10.1427
就业机会	-10.1436
▁比方说	-10.1439
独裁者	-10.1451
出版	-10.1463
穷国	-10.1463
全球贸易	-10.147
所能	-10.1471
习	-10.1471
ha	-10.1475
颠覆	-10.1477
裔	-10.1477
壮	-10.1477
容忍	-10.1478
居住	-10.148
可持续发展目标	-10.1485
临	-10.1487
另一种	-10.149
有必要	-10.1491
加州	-10.1497
共产党	-10.1513
奥巴马政府	-10.1522
基本面	-10.1522
ag	-10.1528
找	-10.153
脆弱性	-10.1535
未来几年	-10.1539
背景	-10.1548
矿	-10.155
几乎所有	-10.1555
欧洲一体化	-10.1565
育	-10.157
誉	-10.1574
了这一点	-10.1574
礼	-10.1576
宝	-10.1578
丁	-10.1578
扫	-10.1578
严肃	-10.1578
挽救	-10.1578
探讨	-10.1578
活跃	-10.1579
营养	-10.1579
争端	-10.158
借助	-10.1581
民间	-10.1583
难度	-10.1583
公共卫生	-10.1591
外汇	-10.1603
做好	-10.1611
敌	-10.1616
电厂	-10.1617
遇到	-10.1627
得出	-10.1628
即便是	-10.1631
在这里	-10.1639
泰	-10.1639
年金融危机	-10.1653
市场经济	-10.1664
高质量	-10.1665
沃	-10.1672
ni	-10.1675
货	-10.1678
更少	-10.1678
云	-10.168
塞浦路斯	-10.168
撒	-10.168
巴沙尔	-10.168
鼓舞	-10.168
习惯	-10.168
参议员	-10.1681
防务	-10.1681
研究所	-10.1684
再加上	-10.1684
始于	-10.1685
电话	-10.1686
低迷	-10.1689
制药	-10.1689
公共债务	-10.1696
ment	-10.1705
产能	-10.171
这些措施	-10.1736
作物	-10.174
生产率增长	-10.1743
年初	-10.1771
宗	-10.1773
监	-10.1777
逊	-10.1783
奈	-10.1783
籍	-10.1783
养老金	-10.1783
慨	-10.1783
偶	-10.1783
肥	-10.1783
甘	-10.1783
免疫	-10.1783
检查	-10.1784
路径	-10.1785
狂热	-10.1785
不信任	-10.1788
现任	-10.1792
手机	-10.1796
ge	-10.1799
改变了	-10.1803
是如何	-10.1809
非常规	-10.1809
社会保障	-10.1816
决定性	-10.1821
英国人	-10.1833
有害	-10.1857
相对较	-10.1863
都无法	-10.1877
响	-10.1878
弃	-10.1885
圈	-10.1887
胎	-10.1887
塔利班	-10.1887
忙	-10.1887
社交媒体	-10.1887
克里姆林宫	-10.1887
饥饿	-10.1887
隆	-10.1887
周年	-10.1887
剧烈	-10.1888
展示	-10.1888
供应链	-10.1888
撤军	-10.189
董事会	-10.1895
人均收入	-10.1897
危机中	-10.1901
很有	-10.1902
ut	-10.1903
ent	-10.1904
源自	-10.191
来自于	-10.1911
Ch	-10.1916
眼下	-10.1922
时机	-10.1926
其实是	-10.1937
股价	-10.1939
万美元	-10.1941
而已	-10.1943
多个	-10.1945
这一趋势	-10.1949
依赖于	-10.1956
工会	-10.1962
都需要	-10.1964
美国国会	-10.198
经济活动	-10.1985
丧	-10.1987
贷	-10.1989
碍	-10.1992
握	-10.1992
智慧	-10.1993
布莱尔	-10.1993
爆炸	-10.1993
抱怨	-10.1993
危害	-10.1993
衰落	-10.1993
幸福	-10.1994
不容	-10.1994
运营	-10.1995
周边	-10.1995
免费	-10.1996
转移支付	-10.1997
收紧	-10.1997
给出	-10.1997
一再	-10.1997
不公平	-10.2005
194	-10.2005
走出	-10.2006
切实	-10.2011
多种	-10.2013
合作伙伴	-10.2014
不安	-10.2018
解决办法	-10.202
政治和经济	-10.203
新兴国家	-10.2038
外国人	-10.205
长达	-10.205
ow	-10.2052
不确定	-10.2059
冷	-10.2071
最贫困	-10.2084
欧元区国家	-10.2096
察	-10.2096
诊	-10.2098
贵	-10.2098
杜	-10.2099
吨	-10.2099
频繁	-10.2099
依据	-10.21
履行	-10.2101
提案	-10.2102
收益率	-10.2114
反映出	-10.2115
包容性	-10.2133
确	-10.2136
不太	-10.2137
不知道	-10.214
这是一个	-10.2144
公民社会	-10.2147
法规	-10.2158
转变为	-10.2158
中获益	-10.217
诸如	-10.2171
规	-10.2178
预计将	-10.2184
解释了	-10.2187
征	-10.2195
偿	-10.2196
祖	-10.2199
父母	-10.2199
振	-10.22
依	-10.2201
链	-10.2202
狂	-10.2205
牵	-10.2206
•	-10.2206
▁一旦	-10.2206
沟通	-10.2206
阳	-10.2206
浓	-10.2206
房屋	-10.2207
地中海	-10.2207
环保	-10.2208
90%	-10.221
极大的	-10.2211
设定	-10.2212
远离	-10.2215
连接	-10.223
环境下	-10.223
贸易赤字	-10.2231
并非如此	-10.2234
负责任	-10.2238
也包括	-10.2244
通胀目标	-10.2247
南方	-10.2256
这一过程	-10.226
co	-10.227
就业岗位	-10.2273
▁于是	-10.2276
减少了	-10.2279
不再是	-10.2282
发展援助	-10.229
作为一个	-10.2295
滑	-10.2305
起作用	-10.2307
触	-10.231
港	-10.2313
帮	-10.2314
块	-10.2314
厚	-10.2315
伯克利	-10.2315
暗示	-10.2316
索马里	-10.2316
依旧	-10.2316
审判	-10.2316
空气污染	-10.2316
动态	-10.2317
食物	-10.2318
借口	-10.2319
保守派	-10.2319
中国和印度	-10.2324
缩小	-10.2327
三大	-10.2329
种子	-10.2331
高管	-10.2334
类似于	-10.2354
有机会	-10.2356
也许会	-10.2359
强国	-10.2361
的命运	-10.2366
仍将	-10.237
所提出的	-10.2375
os	-10.2378
金融系统	-10.2381
是一场	-10.2391
四年	-10.2394
同一	-10.2397
理事会	-10.2399
简	-10.2413
辩	-10.2422
萎靡	-10.2425
夜	-10.2425
亮	-10.2425
阿尔及利亚	-10.2425
四分之一	-10.2425
焦虑	-10.2425
欣	-10.2425
味	-10.2425
邮	-10.2425
模糊	-10.2425
穆巴拉克	-10.2425
继承	-10.2425
倡议	-10.2426
决议	-10.2427
案例	-10.2427
换取	-10.243
30%	-10.2431
成为一个	-10.2432
自愿	-10.2434
极大地	-10.2445
双方都	-10.2449
做到	-10.2451
统治者	-10.2456
绝不是	-10.2477
也因此	-10.2484
监管机构	-10.2488
是正确的	-10.2493
两位	-10.2501
城市化	-10.251
戈	-10.2528
符	-10.2533
阵	-10.2535
摆	-10.2535
刚	-10.2535
课	-10.2536
抛	-10.2536
赋	-10.2536
▁平心而论	-10.2536
阿拉伯之春	-10.2536
授予	-10.2536
抽	-10.2536
码	-10.2536
支柱	-10.2536
理应	-10.2538
裁决	-10.2538
迎来	-10.2539
40%	-10.2539
马德里	-10.2541
友好	-10.2542
标志着	-10.2543
年代末	-10.2544
观察家	-10.2546
盈利	-10.2551
这也是	-10.2552
段	-10.2557
对策	-10.2561
关联	-10.2562
叶	-10.2568
程度上	-10.257
掌权	-10.2572
可怕的	-10.2572
经济和政治	-10.2587
50%	-10.2589
力度	-10.2608
这些政策	-10.2613
等于	-10.262
游行	-10.262
仅有	-10.262
颇	-10.2621
贸易伙伴	-10.2623
um	-10.2629
各大	-10.263
野	-10.2644
抑	-10.2646
纽	-10.2646
马来西亚	-10.2648
漏洞	-10.2649
东南亚	-10.265
运输	-10.2651
60%	-10.2652
介入	-10.2653
西欧	-10.2655
之际	-10.2656
一代人	-10.2663
罪行	-10.2666
气温	-10.2676
更容易	-10.2678
之比	-10.2682
日子	-10.2688
丝	-10.2698
财产	-10.27
分离	-10.2705
这不是	-10.2713
法国总统	-10.2725
前总统	-10.2726
趋	-10.2728
核计划	-10.273
注意	-10.2732
股权	-10.2732
工作者	-10.2736
显然是	-10.2746
看作	-10.2746
反对者	-10.2757
局限	-10.2757
夏	-10.2759
播	-10.276
世贸组织	-10.2762
三分之二	-10.2762
1989	-10.2762
全民公决	-10.2762
凡	-10.2762
什叶派	-10.2762
失望	-10.2762
毛	-10.2762
1998	-10.2762
格鲁吉亚	-10.2762
中央政府	-10.2762
汉	-10.2762
基督教	-10.2762
楼	-10.2762
非政府组织	-10.2762
毫不奇怪	-10.2763
律师	-10.2763
干扰	-10.2763
修复	-10.2763
建造	-10.2764
商品和服务	-10.2765
抵押贷款	-10.2767
文件	-10.2769
更广泛的	-10.2772
非洲大陆	-10.2773
独特	-10.2775
ay	-10.2775
必	-10.2775
角度看	-10.2778
地震	-10.2779
的时间里	-10.278
威尔	-10.2784
正常化	-10.2785
平均水平	-10.2785
银行系统	-10.2787
低收入国家	-10.2788
毫不	-10.2798
较高	-10.2801
随时	-10.2806
一倍	-10.2832
帝	-10.2834
今	-10.2837
id	-10.285
永久	-10.2853
数千	-10.2859
责	-10.2868
违	-10.287
看法	-10.2872
定价	-10.2875
▁Co	-10.2875
叛	-10.2875
孤	-10.2876
罚	-10.2876
长期利率	-10.2877
伯南克	-10.2877
巴尔干	-10.2877
抵御	-10.2877
逊尼派	-10.2877
跳	-10.2877
流离失所	-10.2877
牙	-10.2877
载	-10.2877
Y	-10.2877
棘手	-10.2877
弥补	-10.2877
干旱	-10.2877
舞台	-10.2878
采购	-10.2878
通讯	-10.2878
密集型	-10.2879
虚假	-10.2879
争夺	-10.2879
创建	-10.288
著作	-10.288
认知	-10.2881
指引	-10.2881
偏见	-10.2883
每一个	-10.2884
犹太	-10.289
死亡率	-10.2891
美国总统奥巴马	-10.2899
经济和社会	-10.2899
海军	-10.2905
低收入	-10.2908
被称为	-10.2912
迈	-10.2914
同事	-10.2916
地下	-10.2937
越来越大	-10.2951
撤	-10.2971
不那么	-10.2972
章	-10.2991
暖	-10.2991
政策制定者	-10.2992
二十	-10.2993
搞	-10.2993
吧	-10.2993
姿态	-10.2993
陈	-10.2993
二十一世纪	-10.2993
耐药性	-10.2993
课程	-10.2994
生物多样性	-10.2994
识别	-10.2995
与此	-10.2996
完	-10.2997
交换	-10.2998
赢家	-10.2998
农场	-10.2999
呈现	-10.3
好消息	-10.3001
反思	-10.3002
批	-10.3002
势头	-10.3004
反复	-10.3006
游说	-10.301
这一目标	-10.3018
伊拉克战争	-10.3018
军事行动	-10.3033
国际法	-10.3044
关心	-10.3046
如果你	-10.3048
lo	-10.3049
告诉我们	-10.3051
最大化	-10.3052
肯定会	-10.306
ers	-10.306
财政刺激	-10.3063
厂	-10.3064
好像	-10.3065
为基础	-10.307
危机前	-10.3073
600	-10.3074
提供资金	-10.3075
看看	-10.3079
充	-10.3084
开启	-10.3088
x	-10.3092
区分	-10.3103
替	-10.3107
忧	-10.3111
纵	-10.3111
邓小平	-10.3111
魔	-10.3111
耳	-10.3111
舒	-10.3111
贪	-10.3111
攀升	-10.3111
仇恨	-10.3111
所赐	-10.3112
▁无论如何	-10.3112
北方	-10.3113
紧张局势	-10.3113
印象	-10.3113
渐进	-10.3114
组成部分	-10.3115
温度	-10.3117
铁路	-10.3119
压制	-10.3119
言论自由	-10.3121
迈向	-10.3121
缓和	-10.3126
斯坦	-10.3131
有一些	-10.3136
之势	-10.3138
不起	-10.3139
再度	-10.314
有很多	-10.3158
无法获得	-10.3164
困	-10.3174
危机后	-10.3177
让步	-10.3184
动用	-10.3198
ist	-10.3203
圣战	-10.3204
途	-10.3212
标志	-10.3223
永	-10.3223
黄	-10.3227
稀	-10.3229
谷	-10.323
江	-10.323
蚀	-10.323
态势	-10.3231
医疗保健	-10.3231
恐怖袭击	-10.3233
黄金	-10.3233
缩减	-10.3233
红利	-10.3237
第一步	-10.3241
▁这就	-10.3245
大力	-10.3246
同情	-10.3246
奥巴马总统	-10.3265
只占	-10.327
凯恩斯主义	-10.328
必将	-10.3302
政治制度	-10.3307
有些人	-10.331
贷款人	-10.3311
不断增加	-10.3313
2.5	-10.3313
的方式来	-10.332
有益	-10.3324
已不再	-10.3332
自信	-10.3336
大概	-10.3339
债务危机	-10.3343
园	-10.3344
仿	-10.3349
燃	-10.3349
菌	-10.3349
扬	-10.335
这场危机	-10.335
癌	-10.335
锁	-10.335
截然不同	-10.335
国务卿	-10.3351
仁	-10.3351
希拉里	-10.3351
遵循	-10.3351
薪酬	-10.3351
泄	-10.3351
哪怕	-10.3351
尤其是在	-10.3351
抵抗	-10.3351
坚决	-10.3352
减弱	-10.3354
堪称	-10.3354
实质	-10.3355
事故	-10.3356
银行业	-10.3356
适合	-10.3356
几周	-10.3358
北部	-10.3358
日元	-10.3358
在政治上	-10.3361
达成一致	-10.3362
北非	-10.3364
极有可能	-10.3366
有理由	-10.3373
诸	-10.338
米尔	-10.3387
间接	-10.3389
无视	-10.3391
▁但如今	-10.3398
ia	-10.34
有什么	-10.3402
看待	-10.3404
适当	-10.3405
遭到了	-10.3412
时任	-10.3415
满意	-10.3416
22	-10.3416
700	-10.3416
欧盟领导人	-10.3425
地理	-10.3426
宏大	-10.3428
年增长率	-10.3439
联邦政府	-10.3445
La	-10.3447
借款	-10.3451
其中包括	-10.3453
很重要	-10.3454
听到	-10.3455
售	-10.3463
悲	-10.347
堂	-10.3471
倡	-10.3471
贴	-10.3472
献	-10.3472
葛	-10.3472
弄	-10.3472
逮捕	-10.3472
牧	-10.3472
刊	-10.3472
围绕	-10.3473
to	-10.3473
议题	-10.3473
愿望	-10.3474
新一轮	-10.3474
任何人	-10.3474
报纸	-10.3474
软件	-10.3474
主题	-10.3474
轻易	-10.3474
令人震惊	-10.3475
艾滋病毒	-10.3476
前沿	-10.3479
商界	-10.3486
金融服务	-10.3488
二战后	-10.3497
共同体	-10.3498
EC	-10.3498
斯基	-10.3514
150	-10.3531
一个新的	-10.3546
二氧化碳排放	-10.3547
自由市场	-10.3556
有权	-10.3561
对象	-10.3568
疗法	-10.3572
震	-10.3577
白人	-10.3578
担	-10.3582
洪	-10.3591
险	-10.3592
打造	-10.3594
宁	-10.3595
盟国	-10.3595
茨	-10.3595
店	-10.3596
Facebook	-10.3596
SDG	-10.3596
°	-10.3596
撒哈拉以南非洲	-10.3596
罗伯特	-10.3596
玩	-10.3596
乡	-10.3596
潘	-10.3596
秘书长	-10.3596
传递	-10.3597
勇气	-10.3597
诉讼	-10.3597
叛乱	-10.3597
误导	-10.3597
联合国安理会	-10.3599
救助	-10.3599
征税	-10.3599
基地组织	-10.3601
洪水	-10.3601
流程	-10.3601
各地	-10.3608
绝大部分	-10.3609
ard	-10.3615
眼中	-10.362
趋同	-10.3627
大宗商品	-10.363
非正式	-10.3646
激发	-10.3658
一段	-10.3662
际	-10.3667
世界上最	-10.3667
就不会	-10.3674
上台	-10.368
出口国	-10.369
篇	-10.3696
因而	-10.3706
身体	-10.3711
识	-10.3712
宣	-10.3712
共和党人	-10.3713
是否能	-10.3714
-20	-10.3714
陷	-10.3715
宽	-10.3716
检	-10.3719
村	-10.372
恐	-10.3721
漏	-10.3721
奥朗德	-10.3721
碰	-10.3721
当务之急	-10.3721
贿	-10.3721
真主党	-10.3721
诈	-10.3721
奴	-10.3721
▁the	-10.3721
钢铁	-10.3721
考察	-10.3721
9%	-10.3722
父亲	-10.3722
稳步	-10.3722
适用	-10.3723
计价	-10.3725
这么做	-10.3727
赞成	-10.3729
测量	-10.373
总统大选	-10.373
专利	-10.373
沃尔	-10.373
网站	-10.3731
能量	-10.3731
此举	-10.3736
医疗服务	-10.3747
体验	-10.3752
过去十年	-10.3754
第三个	-10.3767
有点	-10.3781
旅	-10.3803
免受	-10.381
分布	-10.381
基地	-10.3825
唯	-10.3831
评	-10.3834
女孩	-10.3835
作者	-10.3838
欢	-10.3846
廉	-10.3846
摩	-10.3847
稍	-10.3847
毛泽东	-10.3847
诞生	-10.3849
内阁	-10.3849
强有力的	-10.3849
足球	-10.385
▁至于	-10.3851
国企	-10.3851
意志	-10.3852
细节	-10.3853
务实	-10.3853
潜	-10.386
民调	-10.386
行列	-10.3867
一篇	-10.3873
何时	-10.3875
引用	-10.3881
统	-10.3891
国际贸易	-10.3903
注重	-10.3907
起到了	-10.3928
否定	-10.3929
首都	-10.3942
寻	-10.3944
所有权	-10.396
理论上	-10.3962
高层	-10.3969
漫	-10.3972
能带来	-10.3972
街	-10.3972
秘	-10.3973
逆	-10.3974
忘	-10.3974
亚投行	-10.3976
炮	-10.3976
编	-10.3976
尊严	-10.3976
监狱	-10.3976
盖茨	-10.3976
沉默	-10.3977
忘记	-10.3977
判决	-10.3977
强迫	-10.3978
逃离	-10.3978
航空	-10.3979
相结合	-10.398
第二大	-10.3984
竞争对手	-10.3984
祖国	-10.3985
母亲	-10.3987
远比	-10.3996
再一次	-10.4002
前往	-10.4005
长远	-10.4006
货币贬值	-10.401
份子	-10.4011
前者	-10.4019
这正是	-10.4037
独立性	-10.4037
art	-10.4045
储	-10.4047
加入欧盟	-10.4053
资本流	-10.4056
无数	-10.4065
两党	-10.4067
越来越多	-10.4071
加深	-10.4083
赢	-10.4095
低成本	-10.4098
高出	-10.4098
耐	-10.4101
伴	-10.4102
迹	-10.4103
材料	-10.4104
奋	-10.4105
踪	-10.4105
大西洋	-10.4105
巧	-10.4105
特别提款权	-10.4105
津巴布韦	-10.4106
库尔德	-10.4106
箱	-10.4106
达沃斯	-10.4106
娜	-10.4106
亨	-10.4106
卢旺达	-10.4106
莫斯科	-10.4106
产能过剩	-10.4106
演变为	-10.4107
捷克	-10.4108
涌入	-10.4108
预言	-10.4111
令人担忧	-10.4113
古老	-10.4114
自由流动	-10.4116
致死	-10.4117
特朗普政府	-10.4118
三倍	-10.4121
不利于	-10.413
突出	-10.4133
那时	-10.4135
ell	-10.4138
话题	-10.4148
建设性	-10.4149
强力	-10.4157
之道	-10.4159
水资源	-10.4163
劳工	-10.4166
这一比例	-10.4185
展现	-10.4195
损	-10.423
醒	-10.4234
鼓	-10.4237
国内生产总值	-10.4237
贝卢斯科尼	-10.4237
归咎于	-10.4237
庆	-10.4237
培养	-10.4237
仅限于	-10.4238
设置	-10.4239
私营部门	-10.424
失灵	-10.424
辞职	-10.424
源于	-10.4241
创立	-10.4241
转换	-10.4243
写道	-10.4244
▁所有这些都	-10.4254
有意义的	-10.4254
各成员国	-10.4256
很好的	-10.4257
日常	-10.4258
单方面	-10.4266
不变	-10.4281
带着	-10.4283
国家利益	-10.4284
死于	-10.4286
钟	-10.429
恰	-10.4303
斗	-10.431
迈出	-10.4313
民族国家	-10.433
抵	-10.4354
扰	-10.4362
豪	-10.4363
所得税	-10.4365
被用于	-10.4367
管理者	-10.4368
架	-10.437
日本银行	-10.437
疲	-10.437
拔	-10.437
珍	-10.4371
1991	-10.4371
婴儿	-10.4371
雇主	-10.4371
芬兰	-10.4372
知识产权	-10.4372
辛格	-10.4373
接下来	-10.4373
升息	-10.4373
先例	-10.4377
上升到	-10.4378
多元化	-10.4381
意图	-10.4386
里根	-10.4389
IC	-10.4393
小型	-10.4402
灵活性	-10.4404
一方	-10.4423
阿尔	-10.4426
周期性	-10.4434
经济改革	-10.445
中亚	-10.4455
债务重组	-10.446
ck	-10.4462
一道	-10.4467
央行行长	-10.4471
北美	-10.4481
委员	-10.449
拉动	-10.4495
渡	-10.4498
束	-10.4502
援	-10.4502
歌	-10.4505
污	-10.4505
追随者	-10.4506
办公室	-10.4506
qu	-10.4506
人力资本	-10.4506
修订	-10.4506
详细	-10.4506
东京	-10.4506
待遇	-10.4506
压迫	-10.4506
便宜	-10.4507
辩护	-10.4507
谋杀	-10.4507
征收	-10.4508
左派	-10.4508
教师	-10.451
缺失	-10.451
自由贸易协定	-10.4511
父	-10.4513
双重	-10.4516
既然	-10.4517
长久	-10.4519
能获得	-10.4519
当今世界	-10.452
这表明	-10.4531
建立起	-10.4535
创造出	-10.4536
很快就	-10.4539
欧洲理事会	-10.454
以往	-10.4544
平价	-10.4551
最快	-10.4552
割	-10.4552
变得越来越	-10.4552
西方国家	-10.4556
之间的关系	-10.4559
自主	-10.4564
税收收入	-10.4565
采取措施	-10.4568
远低于	-10.4578
充满了	-10.458
增长放缓	-10.4582
政治领导人	-10.4585
解除	-10.4587
中东地区	-10.4597
是时候	-10.4599
难民危机	-10.4608
本月	-10.4623
兑	-10.4634
总统选举	-10.4634
模	-10.4637
辛	-10.464
纯	-10.4641
凭	-10.4642
丝绸之路	-10.4643
蛋	-10.4643
Paul	-10.4643
别无选择	-10.4643
君	-10.4643
在某种程度上	-10.4643
竭尽全力	-10.4643
桑	-10.4643
只不过是	-10.4643
城镇	-10.4643
拖延	-10.4643
限度	-10.4643
厌恶	-10.4644
预料	-10.4644
指望	-10.4646
密集	-10.4646
70%	-10.4646
洲	-10.4647
刑事	-10.465
谈论	-10.465
风暴	-10.4651
接收	-10.4651
兴起	-10.4653
和平进程	-10.4662
公共服务	-10.468
45	-10.4698
美好	-10.4699
很可能会	-10.4704
不堪	-10.4712
特权	-10.4716
峰会上	-10.4721
助长	-10.474
贸易战	-10.4743
大宗商品价格	-10.4743
一片	-10.477
出色	-10.477
伐	-10.478
押	-10.478
乌干达	-10.4781
罗斯福	-10.4781
扶	-10.4782
勒庞	-10.4782
虐待	-10.4782
救援	-10.4783
首席	-10.4783
效仿	-10.4783
浮动	-10.4784
报复	-10.4785
飞机	-10.4786
电网	-10.4788
▁Ma	-10.479
更有可能	-10.4799
作家	-10.4801
可见	-10.481
军事力量	-10.4813
助长了	-10.484
新型	-10.4851
极低	-10.4854
26	-10.4858
ot	-10.4883
银行联盟	-10.4888
太大	-10.4896
发布了	-10.49
夏天	-10.4904
一批	-10.4907
启	-10.4907
ma	-10.4911
想起	-10.492
径	-10.492
浪	-10.492
妇	-10.4921
耶	-10.4922
卓	-10.4922
尘	-10.4922
泥	-10.4922
▁更糟糕的是	-10.4922
哈佛大学	-10.4922
召开的	-10.4922
尾	-10.4922
盗	-10.4922
盲	-10.4922
希特勒	-10.4922
勾	-10.4922
纯粹	-10.4922
从根本上	-10.4923
模仿	-10.4923
稀缺	-10.4923
含义	-10.4923
亦然	-10.4924
幸运	-10.4924
探索	-10.4924
购买力	-10.4925
收购	-10.4925
旅行	-10.4927
雇用	-10.4927
基准	-10.4927
重振	-10.4928
建国	-10.4931
克斯	-10.4932
容克	-10.4933
连任	-10.4933
论文	-10.4936
只需要	-10.4937
的一大	-10.4939
等国	-10.4945
所取得的	-10.4947
提名	-10.4947
时间内	-10.495
危	-10.4951
大家	-10.4959
定期	-10.496
演化	-10.4963
英国首相	-10.4964
选战	-10.4967
政治联盟	-10.4975
新增	-10.4986
推高	-10.4987
太过	-10.4989
韩	-10.4999
这一事实	-10.5002
自杀	-10.5003
级别	-10.5013
人道	-10.5024
债券市场	-10.5024
协会	-10.5026
数学	-10.5027
收到	-10.5041
到达	-10.5045
焦	-10.506
ive	-10.5063
绕	-10.5065
池	-10.5065
歉	-10.5065
腾	-10.5065
1999	-10.5065
氏	-10.5065
氧	-10.5065
宇	-10.5065
馆	-10.5065
管辖	-10.5065
出人意料	-10.5066
疫情	-10.5066
捐助	-10.5066
激增	-10.5069
流失	-10.5069
极右翼	-10.507
政府官员	-10.5075
1979	-10.5076
享有	-10.5079
本质上	-10.5084
精力	-10.5084
财政紧缩	-10.5089
研究者	-10.509
储蓄率	-10.509
下台	-10.5096
置于	-10.5103
生活方式	-10.5126
从而让	-10.5128
这一方针	-10.5131
数百	-10.5144
马里	-10.5147
必需	-10.5149
候	-10.5154
据说	-10.5159
当下	-10.517
军方	-10.517
ve	-10.5178
美洲	-10.5186
然而	-10.5187
涉	-10.5204
雄	-10.5205
仰	-10.5208
遍	-10.5209
猛	-10.521
温家宝	-10.521
抬	-10.521
加泰罗尼亚	-10.521
嫌	-10.521
普林斯顿	-10.521
炼	-10.521
柬埔寨	-10.521
熟悉	-10.521
贾	-10.521
扼杀	-10.521
中等收入	-10.5211
树立	-10.5212
黑暗	-10.5212
生育率	-10.5212
莫迪	-10.5213
什么样的	-10.5214
分化	-10.522
第二次	-10.5223
反抗	-10.5229
市长	-10.5234
金钱	-10.5235
必然会	-10.5245
警告说	-10.5246
主持	-10.5246
十九世纪	-10.5252
年代初	-10.5258
有趣	-10.5258
紧缩政策	-10.5259
年全球金融危机	-10.5259
犯下	-10.5262
自由派	-10.5264
很低	-10.5265
行事	-10.5268
大幅度	-10.5271
温室气体	-10.5274
堪	-10.5279
这使得	-10.5286
我认为	-10.5289
商业银行	-10.53
有足够的	-10.5307
态	-10.5307
掌	-10.5309
富国	-10.5309
em	-10.5334
无关	-10.5338
稳	-10.5341
通往	-10.5354
体现了	-10.5355
弊	-10.5356
订	-10.5356
恨	-10.5357
敬	-10.5357
▁坎布里奇	-10.5357
比特币	-10.5357
穆尔西	-10.5357
加利福尼亚	-10.5357
令人信服	-10.5357
充斥着	-10.5357
辈	-10.5357
粗	-10.5357
川	-10.5357
悄	-10.5357
里斯本	-10.5357
匹配	-10.5357
排斥	-10.5358
秘鲁	-10.5358
莫过于	-10.5359
街头	-10.5361
储量	-10.5363
意料	-10.5363
生效	-10.5364
借贷成本	-10.5366
重复	-10.537
1970	-10.5372
全体	-10.5373
放任	-10.5374
现行	-10.5376
国际合作	-10.5383
恢复力	-10.5392
金融业	-10.5403
son	-10.5406
毕竟	-10.5421
观察者	-10.5423
以致	-10.5423
提高利率	-10.5426
说明了	-10.5436
阿拉伯国家	-10.544
大幅下降	-10.545
下一次	-10.5459
其余	-10.548
律	-10.5496
丰	-10.5503
安理会	-10.5503
熟	-10.5503
彼	-10.5503
签	-10.5504
赌	-10.5505
缘	-10.5505
厌	-10.5505
繁	-10.5506
马克思	-10.5506
John	-10.5506
氦	-10.5506
海平面	-10.5506
惜	-10.5506
李	-10.5506
同性恋	-10.5506
停滞不前	-10.5506
邀请	-10.5506
纪律	-10.5507
叙事	-10.5507
浪潮	-10.5507
剩余	-10.5507
耗尽	-10.5508
页岩气	-10.5508
组建	-10.5508
士兵	-10.5509
赶超	-10.551
专门	-10.5512
的必要性	-10.5513
经理	-10.5514
总体而言	-10.5516
列为	-10.5516
前途	-10.5516
资本流入	-10.5517
大屠杀	-10.552
子女	-10.5523
边缘化	-10.5528
充当	-10.5533
很快就会	-10.5533
这方面的	-10.5535
所导致的	-10.5538
有所下降	-10.5539
高科技	-10.554
所采取的	-10.5541
美国总统特朗普	-10.5549
输出	-10.5554
高涨	-10.5555
ak	-10.5555
债务负担	-10.5561
不顾	-10.5562
大多数人	-10.5562
忽略了	-10.557
东部	-10.558
大批	-10.5583
行动方	-10.5584
变为	-10.5597
一座	-10.56
关键作用	-10.5602
中国共产党	-10.5603
800	-10.5605
这一结果	-10.5626
小国	-10.5632
世界秩序	-10.5635
高速	-10.5641
商品价格	-10.5649
误解	-10.5653
贩	-10.5657
巴拉克	-10.5658
既得利益	-10.5658
逼	-10.5658
奶	-10.5658
丢	-10.5658
歇	-10.5658
貌	-10.5658
石油和天然气	-10.5658
摩洛哥	-10.5658
誓	-10.5658
▁相比之下	-10.5658
住宅	-10.5658
中小企业	-10.5658
杂志	-10.5658
在此期间	-10.5658
形容	-10.566
重申	-10.566
恰恰相反	-10.566
未必	-10.566
最高法院	-10.5662
触发	-10.5663
差别	-10.5666
资本账户	-10.5666
清洁能源	-10.5667
附近	-10.5668
天气	-10.5669
迫切需要	-10.567
撤出	-10.568
不可避免地	-10.5687
降至	-10.5691
ik	-10.5693
小说	-10.5695
过早	-10.5697
实质性	-10.5702
敌对	-10.5717
▁De	-10.5719
世界其他国家	-10.5725
西部	-10.5734
生产者	-10.5747
同等	-10.5755
隔离	-10.5766
起着	-10.578
第五	-10.5792
似	-10.5799
石油价格	-10.58
沿	-10.5801
岸	-10.5805
霸	-10.5807
芬	-10.581
多样性	-10.5811
屈	-10.5811
忠	-10.5811
惯	-10.5811
庄	-10.5812
灯	-10.5812
引人注目	-10.5812
棋	-10.5812
必不可少	-10.5812
描绘	-10.5812
耕	-10.5812
克里米亚	-10.5812
钞	-10.5812
折磨	-10.5812
白宫	-10.5812
经常账户	-10.5813
吸烟	-10.5813
实验室	-10.5813
吸取	-10.5816
混合	-10.5817
管道	-10.5817
异常	-10.5818
替代方案	-10.5821
主导地位	-10.5821
极度	-10.5828
自治	-10.5829
学科	-10.583
控制权	-10.5831
自身利益	-10.5832
算法	-10.5838
这是因为	-10.5852
5,000	-10.586
金融中心	-10.5861
弹性	-10.5871
价格稳定	-10.5881
果真	-10.5893
公共投资	-10.5894
国集团	-10.5899
产权	-10.5902
已开始	-10.5914
2,000	-10.5925
迫	-10.5928
本应	-10.5928
面向	-10.5933
ru	-10.5959
常见	-10.5964
幻	-10.5964
爆	-10.5964
洞	-10.5966
震惊	-10.5966
亦	-10.5966
跃	-10.5967
狱	-10.5968
区块链	-10.5968
踏	-10.5968
添	-10.5968
鸡	-10.5968
卡扎菲	-10.5968
根深蒂固	-10.5968
除此之外	-10.5968
辅	-10.5968
Z	-10.5968
格林斯潘	-10.5968
箭	-10.5968
虎	-10.5968
偷	-10.5968
塑料	-10.5968
宣扬	-10.5968
检测	-10.5969
这并不意味着	-10.597
筹集	-10.597
▁好消息是	-10.5971
重启	-10.5973
开采	-10.5974
生产商	-10.5974
私有化	-10.5976
双边关系	-10.5982
准则	-10.5984
美联储主席	-10.5986
排放量	-10.5988
主动	-10.5993
Ro	-10.5996
所提供的	-10.6008
眼前	-10.6009
刺激计划	-10.601
不良	-10.6035
更广	-10.6044
▁Mo	-10.6045
上周	-10.6049
题	-10.6069
io	-10.6099
这份	-10.6106
本质	-10.6118
这一数字	-10.6118
瑞	-10.6125
尖	-10.6126
酷	-10.6126
抹	-10.6127
Global	-10.6127
有史以来	-10.6127
俱乐部	-10.6127
穆斯林兄弟会	-10.6127
愚蠢	-10.6127
雪	-10.6127
役	-10.6127
枯	-10.6127
1992	-10.6127
灌	-10.6127
诗	-10.6127
指挥	-10.6127
优秀	-10.6127
宝贵	-10.6127
企图	-10.6127
累积	-10.6128
QE	-10.6128
性别平等	-10.6129
声誉	-10.6129
审视	-10.6131
个成员国	-10.6132
公债	-10.6137
名字	-10.6139
排名	-10.614
直面	-10.614
路线	-10.6142
国民收入	-10.6143
节目	-10.6146
朝着	-10.615
唯一一个	-10.6154
概率	-10.616
河流	-10.616
1,000	-10.6166
提前	-10.6175
论者	-10.6181
ta	-10.6186
私有	-10.619
同盟	-10.619
不错	-10.619
数字化	-10.6216
条件下	-10.6228
复杂性	-10.6234
感受到	-10.6245
低效	-10.6246
的人来说	-10.6251
世界其他地区	-10.6269
席	-10.6273
迫切	-10.6276
创造性	-10.6277
大坝	-10.6279
伴随	-10.6282
释	-10.6284
谢	-10.6286
妙	-10.6286
抢	-10.6288
鲁哈尼	-10.6288
劫	-10.6288
罗马尼亚	-10.6288
兄弟	-10.6288
坎	-10.6288
兆	-10.6288
碎	-10.6288
舆论	-10.6288
凶	-10.6288
拆	-10.6288
宪章	-10.6288
顽固	-10.6288
临床	-10.6288
揭露	-10.6288
数十亿美元	-10.6291
沿海	-10.6291
遗传	-10.6291
▁In	-10.6293
广场	-10.6295
认同	-10.6295
出席	-10.6296
目光	-10.6297
接种	-10.6298
▁最重要的是	-10.6299
决不能	-10.6299
数百万人	-10.63
价格上涨	-10.6315
根本没有	-10.6321
极少	-10.6323
推特	-10.6328
耗	-10.633
注意到	-10.6332
研究人员	-10.6346
技术进步	-10.6351
来源于	-10.6355
哪个	-10.6358
国际秩序	-10.6358
所需	-10.6363
对付	-10.639
关键性	-10.639
融	-10.6401
单一货币	-10.6415
别人	-10.6415
提醒	-10.6417
Sh	-10.644
剩	-10.6443
契	-10.6449
渔	-10.645
杂	-10.6451
织	-10.6451
烧	-10.6452
须	-10.6452
经常项目赤字	-10.6452
勃	-10.6452
哥	-10.6452
秋	-10.6452
子孙后代	-10.6452
堵	-10.6452
CEO	-10.6452
赔	-10.6452
宾	-10.6452
猜测	-10.6452
注册	-10.6452
架构	-10.6453
缓冲	-10.6453
轻松	-10.6453
一块	-10.6453
短短	-10.6453
忍受	-10.6454
幻想	-10.6456
偏离	-10.6456
正统	-10.6458
星期	-10.646
携带	-10.6464
本土	-10.6466
当作	-10.6471
任何时候	-10.6474
比赛	-10.6477
打开	-10.6488
外债	-10.6489
非常重要	-10.6493
该组织	-10.6494
尤为	-10.6498
德拉	-10.6499
原因在于	-10.6504
▁自从	-10.6517
会计	-10.6524
术	-10.6529
ang	-10.654
外交官	-10.6605
革	-10.6614
国内消费	-10.6616
讯	-10.6616
番	-10.6618
辱	-10.6618
桶	-10.6619
戒	-10.6619
International	-10.6619
卡塔尔	-10.6619
庸	-10.6619
粉	-10.6619
肩	-10.6619
京都议定书	-10.6619
疏	-10.6619
逢	-10.6619
辆	-10.6619
赏	-10.6619
撞	-10.6619
瘫	-10.6619
燃烧	-10.6619
揭示	-10.6619
掌控	-10.6619
恶劣	-10.662
边际	-10.662
在短期内	-10.662
奇迹	-10.662
修建	-10.662
苦难	-10.6622
倒退	-10.6623
显现	-10.6624
临近	-10.6626
出手	-10.6629
所引发的	-10.6632
指定	-10.6638
名单	-10.6642
事物	-10.6652
能源效率	-10.6653
更糟	-10.6658
准备好	-10.666
美军	-10.6661
一词	-10.6678
财政联盟	-10.6678
维尔	-10.6688
石油公司	-10.6688
当代	-10.6699
例子中	-10.6708
改造	-10.671
着手	-10.6712
世界最大	-10.6722
没有哪个	-10.6727
一支	-10.6742
三国	-10.6753
同时又	-10.6754
提供了一个	-10.6757
否	-10.6761
涌	-10.6766
倾	-10.6777
液	-10.6788
床	-10.6788
日内瓦	-10.6788
悬崖	-10.6788
中国国家主席习近平	-10.6788
忌	-10.6788
朱	-10.6788
旁	-10.6788
熊	-10.6788
帐	-10.6788
很好地	-10.6788
追踪	-10.6789
撤销	-10.6789
耗费	-10.679
治下	-10.679
科研	-10.679
评价	-10.679
超级大国	-10.679
ov	-10.679
港口	-10.6791
每个人都	-10.6791
做好准备	-10.6791
减缓	-10.6795
执法	-10.6798
坝	-10.6798
范式	-10.6799
南亚	-10.68
局限于	-10.6805
打算	-10.6806
永远不会	-10.6809
是不够的	-10.6813
比以往	-10.6825
财政状况	-10.6844
有一天	-10.6847
很小	-10.6848
创造力	-10.6863
期限	-10.6864
总统候选人	-10.6868
副总统	-10.6871
多年前	-10.688
社会福利	-10.6892
层次	-10.69
事关	-10.6906
房产	-10.6906
策	-10.6917
根本无法	-10.6919
烈	-10.6936
远远超过	-10.6943
1.2	-10.6949
措	-10.6957
济	-10.6959
拟	-10.696
怨	-10.696
饮	-10.696
一揽子	-10.6961
归因于	-10.6961
+	-10.6961
练	-10.6961
雄心勃勃	-10.6961
伏	-10.6961
窃	-10.6961
炸弹	-10.6961
罕见	-10.6961
音乐	-10.6962
细菌	-10.6962
元素	-10.6963
奉行	-10.6964
令人失望	-10.6965
职务	-10.6965
退休金	-10.6969
禁令	-10.6971
更强的	-10.6973
新一代	-10.6974
简化	-10.6975
买入	-10.6975
不具备	-10.6987
ex	-10.6989
行动起来	-10.6994
私营	-10.7003
颇为	-10.7003
五个	-10.7003
是不可能的	-10.7022
内政	-10.7025
大致	-10.7031
多元	-10.7034
不清楚	-10.7038
1000	-10.7047
左	-10.7092
劣	-10.7134
宜	-10.7135
刺	-10.7135
拨	-10.7135
虐	-10.7135
荒	-10.7136
巴塞尔	-10.7136
阔	-10.7136
井	-10.7136
尼克松	-10.7136
着眼于	-10.7136
雇佣	-10.7136
核不扩散	-10.7136
海啸	-10.7136
鬼	-10.7136
杀戮	-10.7136
旋	-10.7136
曝光	-10.7136
周围	-10.7138
成绩	-10.7138
顶层	-10.7139
失误	-10.714
雄心	-10.7141
诚实	-10.7141
耐心	-10.7142
用途	-10.715
开端	-10.7151
极端贫困	-10.7152
作品	-10.7155
充分利用	-10.7159
某一	-10.7167
就业率	-10.7171
免于	-10.7182
清楚地	-10.7192
又一次	-10.7195
共同利益	-10.7198
遇	-10.7208
其中一些	-10.7245
带来巨大的	-10.7272
这不仅	-10.7273
资本流动	-10.7282
900	-10.7294
两项	-10.7299
洗	-10.7313
钻	-10.7314
深层次	-10.7314
笼	-10.7314
SDR	-10.7314
归根结底	-10.7315
豁免	-10.7315
丘吉尔	-10.7315
骨	-10.7315
Robert	-10.7315
加密货币	-10.7315
肥胖	-10.7315
Europe	-10.7315
表面上	-10.7315
成千上万	-10.7315
佐	-10.7315
维也纳	-10.7315
轨迹	-10.7315
跨大西洋	-10.7315
隐藏	-10.7316
签证	-10.7316
很大一部分	-10.7316
医保	-10.7317
互换	-10.7317
坏消息	-10.7318
体育	-10.7318
今日	-10.7319
举办	-10.7319
精确	-10.7319
鲜明	-10.732
单独	-10.732
跨越	-10.732
分担	-10.732
复制	-10.7324
起义	-10.7325
政界	-10.7326
新常态	-10.7327
警方	-10.7328
1945	-10.7328
发挥作用	-10.7329
大臣	-10.7329
回报率	-10.7331
历史学家	-10.7332
工业革命	-10.7333
直到最近	-10.7338
身处	-10.7341
跨国公司	-10.7342
新鲜	-10.7344
迫害	-10.7348
合约	-10.7356
年代以来	-10.7356
贸易协定	-10.737
千万	-10.738
极高	-10.7389
收回	-10.7398
政治意愿	-10.7414
命运	-10.7417
政治动荡	-10.7433
工作时间	-10.7435
提交	-10.7439
如同	-10.7439
许可	-10.7465
压低	-10.7466
荡	-10.7474
这两种	-10.7478
主体	-10.7479
最具	-10.7479
不幸的是	-10.7479
变暖	-10.7483
疾	-10.7494
麻	-10.7496
闲	-10.7496
皆	-10.7496
纲	-10.7496
镜	-10.7496
卷土重来	-10.7496
敲	-10.7496
博弈	-10.7496
罢	-10.7496
豆	-10.7496
奖励	-10.7496
衍生品	-10.7496
萨达姆	-10.7496
舰	-10.7496
乳	-10.7497
羞辱	-10.7497
疯狂	-10.7497
阴影	-10.7497
高收入国家	-10.7497
发展中世界	-10.7498
轨道	-10.7498
英雄	-10.7498
逃避	-10.7498
经受	-10.7499
赞助	-10.7499
霍乱	-10.7499
工程师	-10.75
击败	-10.7501
切断	-10.7501
半数	-10.7513
再分配	-10.7514
小学	-10.7515
进一步恶化	-10.7519
国王	-10.7526
社会和经济	-10.753
过去几年	-10.7536
永久性	-10.7536
翼	-10.7537
反对党	-10.7538
强加	-10.7538
根除	-10.7551
还不到	-10.7556
显示出	-10.7559
一群	-10.7573
学派	-10.7592
0.5	-10.7607
本周	-10.7614
病例	-10.7618
够	-10.7636
公私	-10.7648
想想	-10.7657
论证	-10.7661
己	-10.7674
疗	-10.7676
乔	-10.7681
刀	-10.7682
外国直接投资	-10.7682
适得其反	-10.7682
‘	-10.7682
半个世纪	-10.7682
马克里	-10.7682
é	-10.7682
桌	-10.7682
捕捞	-10.7682
荒谬	-10.7682
国务院	-10.7682
宽容	-10.7683
凭借	-10.7683
关押	-10.7683
展望	-10.7683
路线图	-10.7683
优惠	-10.7683
尽快	-10.7684
增速	-10.7684
联系在一起	-10.7685
战术	-10.7685
感兴趣	-10.7686
底层	-10.7686
的领导下	-10.7687
基石	-10.7687
副作用	-10.7689
机关	-10.769
极限	-10.769
解读	-10.769
外交部长	-10.7691
升温	-10.7691
没什么	-10.7699
领导作用	-10.771
加纳	-10.7717
定位	-10.7743
另外一个	-10.7759
行使	-10.7807
▁Le	-10.7816
龄	-10.7839
约束力	-10.7843
神话	-10.7845
事态	-10.7849
选出	-10.785
呈	-10.786
衰	-10.7868
捐	-10.7869
滞	-10.7869
材	-10.787
津	-10.787
德国总理默克尔	-10.787
呆	-10.787
哈萨克斯坦	-10.787
墨	-10.787
挂钩	-10.787
编辑	-10.787
谱	-10.787
查韦斯	-10.787
舍	-10.787
内贾德	-10.787
首席执行官	-10.787
鲍	-10.787
厄	-10.787
詹姆斯	-10.787
奥运会	-10.787
塑造	-10.787
封闭	-10.787
勇敢	-10.787
兑换	-10.7872
谎言	-10.7872
协作	-10.7872
若干	-10.7874
视角	-10.7874
避难	-10.7875
报导	-10.7876
回顾	-10.7877
手术	-10.7878
平稳	-10.7878
意思	-10.788
借此	-10.7883
论调	-10.7884
节约	-10.789
各州	-10.7891
无需	-10.7896
有力的	-10.7918
2025	-10.7943
充分就业	-10.7983
内需	-10.8014
续	-10.8048
武	-10.8051
挑	-10.8055
屠杀	-10.8057
春	-10.8059
雇员	-10.8061
250	-10.8062
斥	-10.8062
吹	-10.8062
主权财富基金	-10.8063
仗	-10.8063
去杠杆化	-10.8063
辨	-10.8063
随之而来的	-10.8063
芝加哥	-10.8063
仓	-10.8063
乘	-10.8063
庆祝	-10.8063
民意调查	-10.8063
的所作所为	-10.8063
千年发展目标	-10.8063
席卷	-10.8063
牛津	-10.8063
症状	-10.8063
截止	-10.8063
破灭	-10.8064
微妙	-10.8064
直觉	-10.8065
修正案	-10.8065
隐私	-10.8065
卷入	-10.8065
防卫	-10.8065
世纪初	-10.8067
老牌	-10.8068
丧生	-10.8069
解放军	-10.8071
确立	-10.8071
世界杯	-10.8071
后续	-10.8074
为首的	-10.8076
总结	-10.8077
方便	-10.8077
特色	-10.8086
公路	-10.8087
脱离欧盟	-10.8095
峰值	-10.8096
提醒我们	-10.8106
高峰	-10.8109
受损	-10.8125
四十年	-10.8146
保守主义	-10.8152
远高于	-10.8157
受益者	-10.8175
极权	-10.8213
所有国家都	-10.8215
ver	-10.8243
0.2	-10.8245
腐	-10.8251
页岩	-10.8256
舞	-10.8258
峡	-10.8259
成百上千	-10.8259
就是明证	-10.8259
绝非易事	-10.8259
TPP	-10.8259
泽	-10.8259
低估了	-10.8259
冠	-10.8259
莎	-10.8259
浅	-10.8259
众所周知	-10.8259
波斯尼亚	-10.8259
世界卫生组织	-10.8259
短暂	-10.8259
挤兑	-10.8259
境况	-10.826
诉求	-10.8261
始终	-10.8261
远远不够	-10.8261
补助	-10.8262
迈进	-10.8262
不良贷款	-10.8262
生育	-10.8262
分析师	-10.8263
接管	-10.8263
哲学家	-10.8264
杀死	-10.8264
英语	-10.8266
毫无意义	-10.8266
随机	-10.8266
难免	-10.8266
借钱	-10.8269
增进	-10.8271
设法	-10.8273
总裁	-10.8273
说服力	-10.828
成效	-10.828
这种做法	-10.8295
达成协议	-10.8297
协	-10.8298
教徒	-10.8309
公共支出	-10.8309
Ra	-10.8333
示威者	-10.8383
应付	-10.8384
司	-10.8429
浮	-10.8434
操	-10.8453
脸	-10.8457
蓄	-10.8458
竟	-10.8458
拍	-10.8459
畜	-10.8459
凝聚力	-10.8459
定居点	-10.8459
寄	-10.8459
痕	-10.8459
1994	-10.8459
糖	-10.8459
凸显出	-10.8459
悔	-10.8459
X	-10.8459
一小部分	-10.8459
东道国	-10.8459
孔	-10.8459
钦	-10.8459
斯里兰卡	-10.8459
疑虑	-10.8459
稳健	-10.8459
比利时	-10.8459
奏效	-10.8459
坚挺	-10.8459
阴谋	-10.8459
稳固	-10.8459
燃煤	-10.8459
兴奋	-10.846
资料	-10.8461
步伐	-10.8461
职责	-10.8462
Mari	-10.8462
代替	-10.8462
海岸	-10.8462
采纳	-10.8463
▁Sch	-10.8464
极端分子	-10.8466
正规	-10.8467
安置	-10.8468
回避	-10.8468
联系起来	-10.8472
药方	-10.8474
巨量	-10.8475
零利率	-10.8483
平息	-10.8485
胜出	-10.8485
场合	-10.8489
体面	-10.8496
留在欧盟	-10.8497
农村地区	-10.8498
广义	-10.8593
社会和政治	-10.86
杀害	-10.8653
堆	-10.8661
递	-10.8661
戏	-10.8662
打交道	-10.8663
哀	-10.8663
弗兰克	-10.8663
垮	-10.8663
Institute	-10.8663
MDG	-10.8663
摸	-10.8663
波士顿	-10.8663
腰	-10.8663
蒸	-10.8663
躲	-10.8663
酿	-10.8663
聘	-10.8663
迫在眉睫	-10.8663
炎	-10.8663
幼	-10.8663
铜	-10.8663
穆罕默德	-10.8663
尖锐	-10.8663
暂停	-10.8663
发展中经济体	-10.8663
篮子	-10.8663
寡头	-10.8664
反应堆	-10.8665
寻常	-10.8665
软弱	-10.8665
抵达	-10.8666
做到这一点	-10.8667
预警	-10.8667
施压	-10.8667
营造	-10.8667
经典	-10.8668
北朝鲜	-10.867
故意	-10.867
联合国大会	-10.867
替代品	-10.8671
赞同	-10.8672
房子	-10.8673
各类	-10.8676
政治家们	-10.868
高速增长	-10.868
货币操纵	-10.8687
25%	-10.8689
并不一定	-10.8691
界定	-10.8692
甚至连	-10.8695
微小	-10.8696
提及	-10.8707
这段	-10.8736
神经	-10.8742
储存	-10.8745
vi	-10.8746
星球	-10.8759
纳德	-10.8776
可怕	-10.8806
促	-10.8806
民选	-10.8847
种族主义	-10.8858
阻	-10.8863
哲学	-10.8866
攻	-10.8867
治国	-10.8869
俗	-10.887
障	-10.887
巴黎气候协定	-10.8871
撒切尔	-10.8871
无关紧要	-10.8871
视而不见	-10.8871
National	-10.8871
恶性循环	-10.8871
桑德斯	-10.8871
匿	-10.8871
驾驶	-10.8871
搭	-10.8871
译	-10.8871
旺	-10.8871
漂	-10.8871
颜	-10.8871
亚太地区	-10.8871
叹	-10.8871
摄	-10.8871
晓	-10.8871
仪	-10.8871
硅谷	-10.8871
南中国海	-10.8871
阅读	-10.8871
延伸	-10.8871
营养不良	-10.8872
饮食	-10.8872
草案	-10.8873
进攻	-10.8873
国防部长	-10.8874
北爱尔兰	-10.8876
少数民族	-10.8876
固然	-10.8876
印度洋	-10.8876
阻力	-10.8877
配额	-10.8878
rry	-10.8879
停火	-10.8879
建成	-10.8881
夺走	-10.8882
护理	-10.8882
胜任	-10.8882
研	-10.9065
奉	-10.9078
敏	-10.9082
抓	-10.9083
吓	-10.9084
驾	-10.9084
郎	-10.9084
宿	-10.9084
懈	-10.9084
棒	-10.9084
拼	-10.9084
午	-10.9084
滥	-10.9278
臣	-10.9284
银	-10.9289
洋	-10.9293
捷	-10.9297
拒	-10.9298
屋	-10.9301
香	-10.9301
枚	-10.9301
赴	-10.9301
缠	-10.9301
昂	-10.9492
纠	-10.951
染	-10.952
缴	-10.9521
黎	-10.9522
彻	-10.9522
钢	-10.9523
琳	-10.9523
瘾	-10.9523
铺	-10.9523
冬	-10.9523
滋	-10.9523
努	-10.9745
宪	-10.9746
愈	-10.975
捉	-10.9751
窗	-10.9751
苛	-10.9751
卸	-10.9751
搬	-10.9751
寒	-10.9751
恒	-10.9751
囊	-10.9751
喊	-10.9751
辉	-10.9751
妄	-10.9751
尊	-10.9978
右	-10.9979
竞	-10.998
削	-10.9981
挫	-10.9983
糊	-10.9983
夕	-10.9983
珠	-10.9983
鸣	-10.9983
寥	-10.9983
唤	-10.9983
礁	-10.9983
耀	-10.9983
窄	-10.9983
奔	-10.9983
孙	-10.9983
闪	-10.9983
驳	-11.0217
履	-11.0217
闭	-11.0219
状	-11.0219
绿	-11.022
惑	-11.0221
丑	-11.0221
迭	-11.0221
韦	-11.0221
绩	-11.046
况	-11.0462
轨	-11.0462
赤	-11.0465
伸	-11.0465
愤	-11.0465
究	-11.0465
耻	-11.0465
雾	-11.0465
逝	-11.0465
您	-11.0465
凝	-11.0465
柯	-11.0465
针	-11.0629
孩	-11.0711
镇	-11.0714
阴	-11.0714
亏	-11.0715
饭	-11.0715
页	-11.0715
懂	-11.0715
疆	-11.0715
畏	-11.0715
奸	-11.0715
菜	-11.0715
恋	-11.0715
渐	-11.096
唐	-11.0971
谅	-11.0972
瑟	-11.0972
塌	-11.0972
昆	-11.0972
脉	-11.0972
淘	-11.0972
锐	-11.1235
插	-11.1235
乍	-11.1235
撕	-11.1235
屏	-11.1235
肝	-11.1235
羊	-11.1235
劝	-11.1235
粒	-11.1235
铀	-11.1235
筑	-11.1419
券	-11.1498
揭	-11.1503
洁	-11.1503
旱	-11.1504
慎	-11.1504
饰	-11.1505
溢	-11.1505
喀	-11.1505
乙	-11.1505
刷	-11.1505
葬	-11.1505
鸟	-11.1505
茶	-11.1505
辟	-11.1505
肺	-11.1505
埋	-11.1505
技	-11.1769
卷	-11.1779
薄	-11.1782
遵	-11.1782
拓	-11.1782
纷	-11.1783
羞	-11.1783
烦	-11.1783
叠	-11.1783
勤	-11.1783
畅	-11.1783
砖	-11.1783
屡	-11.1783
溯	-11.1783
厅	-11.1783
缝	-11.1783
勉	-11.1783
卜	-11.1783
祸	-11.1783
缪	-11.1783
雇	-11.2049
夸	-11.205
截	-11.2064
悖	-11.2067
衷	-11.2068
艺	-11.2068
垂	-11.2069
刃	-11.2069
韧	-11.2069
涅	-11.2069
湖	-11.2069
酸	-11.2069
俱	-11.2069
巡	-11.2069
跑	-11.2069
鼠	-11.2069
蓝	-11.2361
挺	-11.2362
扯	-11.2363
魁	-11.2363
虫	-11.2363
堕	-11.2363
狼	-11.2363
儒	-11.2363
仲	-11.2363
琐	-11.2363
耸	-11.2363
肘	-11.2363
灰	-11.2363
糟	-11.2595
杯	-11.2652
授	-11.266
Q	-11.2663
详	-11.2665
颗	-11.2666
丈	-11.2666
渺	-11.2666
悬	-11.2666
甩	-11.2666
厘	-11.2666
嘴	-11.2666
袋	-11.2666
址	-11.2666
胆	-11.2769
伍	-11.2852
念	-11.2879
艰	-11.2949
谎	-11.2976
媒	-11.2976
秀	-11.2977
崩	-11.2978
磨	-11.2978
壳	-11.2978
聊	-11.2978
彭	-11.2978
掘	-11.2978
饲	-11.2978
猪	-11.2978
咒	-11.2978
蚊	-11.2978
档	-11.2978
衍	-11.2978
刘	-11.2978
锡	-11.2978
企	-11.3274
遣	-11.3297
妻	-11.3298
颠	-11.3301
愚	-11.3301
喝	-11.3301
]	-11.3301
殆	-11.3301
淹	-11.3301
炉	-11.3301
[	-11.3301
酵	-11.3301
猎	-11.3301
谜	-11.3301
俩	-11.3301
寓	-11.3301
泡	-11.3301
梯	-11.3301
妹	-11.3301
庭	-11.3549
伟	-11.3617
忍	-11.3626
荷	-11.3633
覆	-11.3633
填	-11.3634
顽	-11.3634
氛	-11.3634
夭	-11.3634
罩	-11.3634
腹	-11.3634
甲	-11.3634
鹰	-11.3634
勘	-11.3634
陶	-11.3634
醇	-11.3634
么	-11.3891
概	-11.394
鉴	-11.3966
申	-11.3973
答	-11.3975
粹	-11.3977
择	-11.3977
挽	-11.3978
挡	-11.3979
妥	-11.3979
滩	-11.3979
悟	-11.3979
狗	-11.3979
汗	-11.3979
县	-11.3979
栏	-11.3979
弥	-11.4333
勇	-11.4333
宫	-11.4335
泉	-11.4335
炸	-11.4335
绑	-11.4336
壁	-11.4336
珊	-11.4336
渊	-11.4336
贺	-11.4336
躁	-11.4336
á	-11.4336
肤	-11.4336
魂	-11.4336
鼎	-11.4336
噬	-11.4336
柴	-11.4336
胃	-11.4336
诫	-11.4336
骑	-11.4336
唱	-11.4336
悦	-11.4336
饱	-11.4702
健	-11.4703
乃	-11.4704
辖	-11.4706
匹	-11.4706
啡	-11.4706
矛	-11.4706
蛇	-11.4706
瞻	-11.4706
爵	-11.4706
聆	-11.4706
敞	-11.4706
殴	-11.4706
宴	-11.4707
绳	-11.4707
雕	-11.4707
携	-11.506
予	-11.5066
催	-11.5088
诞	-11.5088
劲	-11.5088
闹	-11.5091
募	-11.5091
删	-11.5091
鄙	-11.5091
圭	-11.5091
嫁	-11.5091
拳	-11.5091
滴	-11.5091
眠	-11.5091
肌	-11.5091
遮	-11.5091
帖	-11.5091
狐	-11.5091
陌	-11.5091
秉	-11.5091
冈	-11.5091
摘	-11.5091
杉	-11.5091
吵	-11.5091
笃	-11.5091
瓶	-11.5091
玻	-11.5091
僵	-11.5472
漠	-11.549
挪	-11.549
榜	-11.549
循	-11.549
掩	-11.549
渴	-11.5491
咖	-11.5491
垫	-11.5491
湿	-11.5491
滚	-11.5491
佬	-11.5491
嘉	-11.5491
腕	-11.5491
涂	-11.5491
览	-11.5491
惟	-11.5491
烂	-11.5491
距	-11.588
京	-11.5904
忽	-11.5905
疫	-11.5905
罕	-11.5906
锋	-11.5906
疯	-11.5907
惧	-11.5907
谬	-11.5908
谨	-11.5908
描	-11.5908
滤	-11.5908
铲	-11.5908
坠	-11.5908
廷	-11.5908
萌	-11.5908
僧	-11.5908
掏	-11.5908
鞋	-11.5908
秒	-11.5908
圆	-11.5908
囤	-11.5908
妮	-11.5908
坑	-11.5908
宠	-11.5908
瓜	-11.5908
铝	-11.5908
蜂	-11.5908
沦	-11.6294
敦	-11.6342
挣	-11.6342
桥	-11.6342
岩	-11.6342
侦	-11.6342
垒	-11.6343
睡	-11.6343
轰	-11.6343
绘	-11.6343
氓	-11.6343
溺	-11.6343
逾	-11.6343
飘	-11.6343
芯	-11.6343
腿	-11.6343
茅	-11.6343
姑	-11.6343
沾	-11.6343
喷	-11.6343
趣	-11.6645
阶	-11.6794
婴	-11.6796
猜	-11.6796
悉	-11.6797
挖	-11.6797
柔	-11.6797
裙	-11.6797
裹	-11.6797
淫	-11.6797
窥	-11.6797
芽	-11.6797
睛	-11.6797
郊	-11.6797
扑	-11.6797
磁	-11.6797
摊	-11.6797
噪	-11.6797
淋	-11.6797
醉	-11.6797
陪	-11.6797
骤	-11.7268
遏	-11.727
虽	-11.7271
盯	-11.7272
培	-11.7272
册	-11.7273
&	-11.7273
祈	-11.7273
砸	-11.7273
斑	-11.7273
盾	-11.7273
惹	-11.7273
汤	-11.7273
昧	-11.7273
绍	-11.7273
猫	-11.7273
臂	-11.7273
凌	-11.7273
勿	-11.7273
慕	-11.7273
晨	-11.7273
颂	-11.7273
碗	-11.7273
臭	-11.7273
雀	-11.7273
喘	-11.7273
朴	-11.7273
艘	-11.7273
奎	-11.7273
窝	-11.7273
旨	-11.7692
迎	-11.7751
怕	-11.7764
毫	-11.7766
搜	-11.7771
训	-11.7771
毕	-11.7771
楚	-11.7771
督	-11.7773
慌	-11.7773
肿	-11.7773
兽	-11.7773
剑	-11.7773
串	-11.7773
晦	-11.7773
啊	-11.7773
浩	-11.7773
亟	-11.7773
杆	-11.7773
诡	-11.7773
捏	-11.7773
胸	-11.7773
叉	-11.7773
夷	-11.7773
筋	-11.7773
魏	-11.7773
溃	-11.7773
趁	-11.7773
í	-11.7773
橙	-11.7773
玉	-11.7774
验	-11.816
昔	-11.8295
寡	-11.8296
府	-11.8298
旬	-11.8299
斩	-11.83
尸	-11.83
侨	-11.83
歪	-11.83
踩	-11.83
墓	-11.83
焚	-11.83
―	-11.83
仙	-11.83
昭	-11.83
氮	-11.83
喉	-11.83
弯	-11.83
踢	-11.83
驯	-11.83
凑	-11.83
祭	-11.83
枝	-11.83
浸	-11.83
敛	-11.83
穴	-11.83
犬	-11.83
贱	-11.83
郭	-11.83
吾	-11.83
享	-11.8326
摇	-11.8763
阁	-11.8849
挥	-11.885
寸	-11.8852
抚	-11.8853
撑	-11.8854
盐	-11.8855
讽	-11.8855
袒	-11.8855
鲨	-11.8855
芒	-11.8855
锚	-11.8855
掷	-11.8855
莉	-11.8855
刹	-11.8855
堤	-11.8855
裤	-11.8855
挂	-11.8855
巢	-11.8855
疹	-11.8855
扔	-11.8855
>	-11.8855
<	-11.8855
爬	-11.8855
廊	-11.8855
舌	-11.8855
峰	-11.9106
贬	-11.9442
阅	-11.9443
饿	-11.9443
禽	-11.9443
丛	-11.9443
拱	-11.9443
昨	-11.9443
妈	-11.9443
窘	-11.9443
睐	-11.9443
寨	-11.9443
鞭	-11.9443
娅	-11.9443
蒋	-11.9443
渎	-11.9443
炫	-11.9443
猩	-11.9443
瞬	-11.9443
磅	-11.9443
裸	-11.9443
盼	-11.9444
桩	-11.9444
骂	-11.9444
岗	-12.0065
彦	-12.0068
赠	-12.0068
琼	-12.0068
焕	-12.0068
帅	-12.0068
剖	-12.0068
矩	-12.0068
寺	-12.0068
梭	-12.0068
熬	-12.0068
祷	-12.0068
诀	-12.0068
钉	-12.0068
俯	-12.0068
瘤	-12.0068
ü	-12.0068
纱	-12.0068
哨	-12.0068
棉	-12.0068
翁	-12.0068
炒	-12.0068
坊	-12.0068
霉	-12.0068
丘	-12.0068
宋	-12.0069
恭	-12.0069
煎	-12.0069
吴	-12.0069
弟	-12.0069
蜜	-12.0069
柏	-12.0734
冻	-12.0734
幽	-12.0735
擦	-12.0735
澳	-12.0735
贡	-12.0735
羁	-12.0735
庙	-12.0735
浦	-12.0735
伞	-12.0735
搅	-12.0735
氯	-12.0735
吻	-12.0735
寂	-12.0735
倚	-12.0735
矢	-12.0735
栋	-12.0735
饼	-12.0735
葡	-12.0735
衬	-12.0735
凉	-12.0735
溪	-12.0735
肇	-12.0735
啦	-12.0735
宏	-12.0989
屠	-12.1402
馈	-12.1443
董	-12.1445
拢	-12.1448
粮	-12.1449
齿	-12.1449
嵌	-12.1449
株	-12.1449
惶	-12.1449
粘	-12.1449
肢	-12.1449
喧	-12.1449
寝	-12.1449
帽	-12.1449
觑	-12.1449
芝	-12.1449
窟	-12.1449
吕	-12.1449
詹	-12.1449
觅	-12.1449
殃	-12.1449
铅	-12.1449
竿	-12.1449
哮	-12.1449
滨	-12.145
勋	-12.145
殊	-12.2214
析	-12.2214
叙	-12.2215
宰	-12.2217
攀	-12.2218
披	-12.2218
砍	-12.2218
弦	-12.2218
亩	-12.2218
挟	-12.2219
愧	-12.2219
昏	-12.2219
唾	-12.2219
盒	-12.2219
苗	-12.2219
隙	-12.2219
吐	-12.2219
鼻	-12.2219
娘	-12.2219
焉	-12.2219
肖	-12.2219
酶	-12.2219
羡	-12.2219
蚕	-12.2219
梳	-12.2219
哦	-12.2219
恣	-12.2219
撇	-12.2219
羽	-12.2219
涓	-12.2219
卵	-12.2219
炬	-12.2219
俭	-12.2219
弘	-12.2219
奏	-12.3049
虑	-12.305
拾	-12.305
袖	-12.3051
掠	-12.3051
扼	-12.3051
捞	-12.3051
祝	-12.3052
挠	-12.3052
蠢	-12.3052
瘦	-12.3052
佣	-12.3052
梁	-12.3052
杨	-12.3052
苍	-12.3052
郑	-12.3052
掺	-12.3052
泪	-12.3052
睦	-12.3052
妖	-12.3052
纹	-12.3052
辽	-12.3052
饶	-12.3052
瘟	-12.3052
遂	-12.3052
熙	-12.3052
缕	-12.3052
罐	-12.3052
芜	-12.3052
盈	-12.3833
暂	-12.3946
映	-12.3956
q	-12.3959
绪	-12.396
铭	-12.396
扮	-12.396
怎	-12.396
撰	-12.396
尝	-12.396
蛮	-12.3961
朋	-12.3961
艇	-12.3961
驶	-12.3961
拙	-12.3961
厕	-12.3961
晶	-12.3961
懒	-12.3961
咬	-12.3961
哭	-12.3961
凿	-12.3961
泳	-12.3961
姬	-12.3961
哗	-12.3961
噤	-12.3961
焰	-12.3961
绞	-12.3961
匪	-12.3961
晴	-12.3961
唉	-12.3961
坟	-12.3961
缉	-12.3961
–	-12.3961
傻	-12.3961
冉	-12.3961
锦	-12.3961
鹅	-12.3961
泊	-12.3961
脊	-12.3961
魄	-12.3961
挨	-12.3961
柄	-12.3961
秃	-12.3961
ó	-12.3961
粪	-12.3961
嗜	-12.3961
珀	-12.3961
硕	-12.3961
碑	-12.3961
藻	-12.3961
篮	-12.4958
酬	-12.4959
蔑	-12.496
柱	-12.496
宅	-12.496
胁	-12.496
慈	-12.496
磕	-12.4961
篱	-12.4961
揣	-12.4961
夥	-12.4961
沛	-12.4961
侯	-12.4961
梗	-12.4961
氢	-12.4961
泵	-12.4961
矮	-12.4961
仆	-12.4961
怯	-12.4961
胶	-12.4961
栖	-12.4961
沈	-12.4961
溜	-12.4961
搏	-12.4961
稿	-12.4961
蕾	-12.4961
斧	-12.4961
浑	-12.4961
栗	-12.4961
熔	-12.4961
爪	-12.4961
#	-12.4961
厨	-12.4961
孜	-12.4961
帆	-12.4961
痒	-12.4961
凄	-12.4961
髓	-12.4961
庞	-12.5971
塑	-12.6066
曝	-12.607
傲	-12.6071
邀	-12.6072
饥	-12.6072
昌	-12.6072
刮	-12.6072
蛾	-12.6072
祥	-12.6072
竹	-12.6072
冯	-12.6072
函	-12.6072
呕	-12.6072
屁	-12.6072
戳	-12.6072
鹿	-12.6072
吠	-12.6072
膏	-12.6072
谚	-12.6072
镀	-12.6072
贤	-12.6072
霾	-12.6072
绰	-12.6072
锅	-12.6072
驴	-12.6072
骆	-12.6072
剪	-12.6072
叔	-12.6072
瞎	-12.6072
ä	-12.6072
悍	-12.6072
溶	-12.6072
肠	-12.6072
疮	-12.6072
狠	-12.6072
羹	-12.6072
壕	-12.6072
怂	-12.6072
丸	-12.6072
巷	-12.6072
润	-12.7316
胀	-12.732
琉	-12.7322
罄	-12.7322
咳	-12.7322
椅	-12.7322
寇	-12.7322
乞	-12.7322
妆	-12.7322
鸠	-12.7322
侍	-12.7322
龟	-12.7322
ö	-12.7322
婉	-12.7322
洽	-12.7322
钝	-12.7322
洼	-12.7322
è	-12.7322
癖	-12.7322
芭	-12.7322
喂	-12.7322
鸭	-12.7322
恕	-12.7322
紫	-12.7322
烙	-12.7322
硝	-12.7322
缄	-12.7322
躬	-12.7322
橡	-12.7322
篷	-12.7322
肋	-12.7322
煞	-12.7322
咸	-12.7322
咽	-12.7322
琴	-12.7322
炙	-12.7322
兄	-12.7322
暑	-12.7322
梵	-12.7322
鹤	-12.7322
沸	-12.7322
胺	-12.7322
猾	-12.7322
钚	-12.7322
漆	-12.7322
丙	-12.7322
茂	-12.7322
浆	-12.7323
棵	-12.7323
剔	-12.8735
煽	-12.8748
肃	-12.875
硅	-12.875
吟	-12.875
韬	-12.8751
氟	-12.8751
戛	-12.8751
爷	-12.8751
ç	-12.8751
坞	-12.8751
眉	-12.8751
贼	-12.8751
恳	-12.8751
拐	-12.8751
臻	-12.8751
锈	-12.8751
陡	-12.8751
甜	-12.8751
碾	-12.8751
淌	-12.8751
棍	-12.8751
殿	-12.8751
矫	-12.8751
轩	-12.8751
拧	-12.8751
猴	-12.8751
骇	-12.8751
邓	-12.8751
徐	-12.8751
荫	-12.8751
闯	-12.8751
尿	-12.8751
悯	-12.8751
懊	-12.8751
绵	-12.8751
唇	-12.8751
硫	-12.8751
稠	-12.8751
蕉	-12.8751
敷	-12.8751
朵	-12.8751
膝	-12.8751
轴	-13.0413
键	-13.0415
峻	-13.0417
炭	-13.0417
鳄	-13.0417
姿	-13.0417
铐	-13.0417
耍	-13.0417
唆	-13.0417
楷	-13.0417
膀	-13.0417
枕	-13.0417
沧	-13.0417
甫	-13.0417
篡	-13.0417
芦	-13.0417
毯	-13.0417
弧	-13.0417
槽	-13.0417
萃	-13.0417
闸	-13.0417
鲸	-13.0417
窜	-13.0417
绷	-13.0417
牍	-13.0417
瑰	-13.0417
藤	-13.0417
冥	-13.0417
泼	-13.0417
冀	-13.0417
栽	-13.0417
僻	-13.0417
攒	-13.0417
谙	-13.0417
妒	-13.0417
艳	-13.0417
亥	-13.0417
匝	-13.0417
靡	-13.0417
哄	-13.0417
摔	-13.0417
碧	-13.0417
赘	-13.0417
锤	-13.0417
侠	-13.0418
旷	-13.0418
衫	-13.0418
坪	-13.0418
浴	-13.0418
腔	-13.0418
赵	-13.0418
蹲	-13.0418
浇	-13.0418
疼	-13.0418
钨	-13.0418
岑	-13.0418
缅	-13.0418
薯	-13.0418
掀	-13.2413
沟	-13.2415
御	-13.2416
仕	-13.2417
胖	-13.2417
柳	-13.2417
驰	-13.2417
嘛	-13.2417
@	-13.2417
嫩	-13.2417
朔	-13.2417
ł	-13.2417
陀	-13.2417
伽	-13.2417
伺	-13.2418
喇	-13.2418
骄	-13.2418
赐	-13.4901
棘	-13.4914
翰	-13.4914
悠	-13.4916
镑	-13.4916
戮	-13.4916
钩	-13.4917
弈	-13.4917
咋	-13.4917
盎	-13.4918
扭	-13.8248
萧	-13.8249
鸦	-13.825
瞒	-13.825
辙	-13.8251
岭	-13.8251
棱	-13.8251
撮	-13.8251
啸	-14.3249
励	-14.3249
迅	-14.325
莽	-14.325
娱	-14.325
捍	-14.325
蔓	-14.325
腊	-14.325
怖	-14.325
螺	-14.325
逸	-14.325
斜	-14.3251
杠	-14.3251
烷	-14.3251
乓	-15.2745
乒	-15.2746
ã	-15.2747
靶	-15.2748
酮	-15.2749
酗	-15.275
蹴	-15.2751
蜃	-15.2752
舵	-15.2753
绒	-15.2754
眈	-15.2755
瑕	-15.2756
猬	-15.2757
猝	-15.2758
牒	-15.2759
烁	-15.276
澡	-15.2761
沪	-15.2762
沁	-15.2763
椭	-15.2764
挞	-15.2765
岖	-15.2766
姊	-15.2767
喹	-15.2768
厥	-15.2769
匙	-15.277
冕	-15.2771
兢	-15.2772
侥	-15.2773
锻	-15.2774
酪	-15.2775
讧	-15.2776
蝇	-15.2777
舶	-15.2778
胥	-15.2779
缆	-15.278
绽	-15.2781
稣	-15.2782
瞪	-15.2783
睬	-15.2784
疵	-15.2785
疚	-15.2786
狩	-15.2787
灶	-15.2788
瀑	-15.2789
泣	-15.279
杞	-15.2791
昙	-15.2792
擘	-15.2793
挚	-15.2794
恪	-15.2795
墅	-15.2796
啬	-15.2797
咫	-15.2798
咆	-15.2799
匀	-15.28
剽	-15.2801
傍	-15.2802
鳌	-15.2803
髦	-15.2804
饪	-15.2805
霄	-15.2806
隧	-15.2807
钥	-15.2808
辄	-15.2809
躺	-15.281
蜘	-15.2811
缭	-15.2812
簿	-15.2813
瘠	-15.2814
犀	-15.2815
燎	-15.2816
烹	-15.2817
漓	-15.2818
浏	-15.2819
歹	-15.282
枷	-15.2821
恿	-15.2822
恫	-15.2823
孽	-15.2824
吊	-15.2825
儡	-15.2826
傀	-15.2827
轿	-15.2828
跛	-15.2829
谕	-15.283
诛	-15.2831
诘	-15.2832
讦	-15.2833
襁	-15.2834
褓	-15.2835
藩	-15.2836
茁	-15.2837
绎	-15.2838
狸	-15.2839
沂	-15.284
毗	-15.2841
榷	-15.2842
梏	-15.2843
桎	-15.2844
枭	-15.2845
斡	-15.2846
捣	-15.2847
惫	-15.2848
悚	-15.2849
坷	-15.285
啤	-15.2851
吝	-15.2852
鸽	-15.2853
遑	-15.2854
逞	-15.2855
蹶	-15.2856
赡	-15.2857
赁	-15.2858
蛛	-15.2859
蒿	-15.286
萦	-15.2861
萝	-15.2862
缛	-15.2863
簸	-15.2864
竖	-15.2865
睿	-15.2866
燥	-15.2867
渥	-15.2868
涸	-15.2869
棣	-15.287
撬	-15.2871
扳	-15.2872
恃	-15.2873
弛	-15.2874
廓	-15.2875
嚷	-15.2876
嘎	-15.2877
雏	-15.2878
蹊	-15.2879
诃	-15.288
虏	-15.2881
纭	-15.2882
碱	-15.2883
恙	-15.2884
巅	-15.2885
侪	-15.2886
陵	-15.2887
闷	-15.2888
诟	-15.2889
蛊	-15.289
荼	-15.2891
紊	-15.2892
碌	-15.2893
牟	-15.2894
漩	-15.2895
泻	-15.2896
橄	-15.2897
榨	-15.2898
榄	-15.2899
捆	-15.29
忏	-15.2901
崎	-15.2902
墉	-15.2903
圄	-15.2904
囹	-15.2905
哺	-15.2906
钵	-15.2907
辕	-15.2908
诋	-15.2909
袱	-15.291
蜡	-15.2911
苟	-15.2912
禀	-15.2913
狡	-15.2914
烛	-15.2915
朽	-15.2916
暧	-15.2917
弭	-15.2918
幌	-15.2919
帷	-15.292
孵	-15.2921
壑	-15.2922
兀	-15.2923
藐	-15.2924
痢	-15.2925
爽	-15.2926
潭	-15.2927
淀	-15.2928
毅	-15.2929
暇	-15.293
惰	-15.2931
嫖	-15.2932
娼	-15.2933
奄	-15.2934
俾	-15.2935
迥	-15.2936
肾	-15.2937
罔	-15.2938
绥	-15.2939
纤	-15.294
皂	-15.2941
璃	-15.2942
淖	-15.2943
汶	-15.2944
袤	-15.2945
绊	-15.2946
瞄	-15.2947
盆	-15.2948
玷	-15.2949
熄	-15.295
涩	-15.2951
沼	-15.2952
捧	-15.2953
扪	-15.2954
屑	-15.2955
嘘	-15.2956
鹫	-15.2957
踵	-15.2958
诠	-15.2959
臃	-15.296
胚	-15.2961
杭	-15.2962
攸	-15.2963
巫	-15.2964
嗤	-15.2965
倪	-15.2966
躇	-15.2967
踌	-15.2968
肚	-15.2969
瑚	-15.297
挝	-15.2971
抉	-15.2972
戚	-15.2973
媲	-15.2974
喋	-15.2975
倘	-15.2976
辍	-15.2977
诅	-15.2978
湄	-15.2979
汀	-15.298
帜	-15.2981
娩	-15.2982
蹒	-15.2983
跚	-15.2984
虔	-15.2985
纾	-15.2986
窒	-15.2987
狄	-15.2988
嫉	-15.2989
匆	-15.299
驭	-15.2991
绌	-15.2992
稻	-15.2993
斐	-15.2994
摒	-15.2995
拦	-15.2996
圳	-15.2997
铸	-15.2998
遴	-15.2999
笨	-15.3
稚	-15.3001
禧	-15.3002
矶	-15.3003
獗	-15.3004
猖	-15.3005
拷	-15.3006
颓	-15.3007
谦	-15.3008
稽	-15.3009
巾	-15.301
宛	-15.3011
颖	-15.3012
谣	-15.3013
罹	-15.3014
睁	-15.3015
畸	-15.3016
涡	-15.3017
曙	-15.3018
墟	-15.3019
俘	-15.302
谊	-15.3021
搁	-15.3022
顷	-15.3023
陋	-15.3024
蔬	-15.3025
孱	-15.3026
姐	-15.3027
厦	-15.3028
侮	-15.3029
逍	-15.303
躏	-15.3031
蹂	-15.3032
荐	-15.3033
猿	-15.3034
煌	-15.3035
憬	-15.3036
憧	-15.3037
孚	-15.3038
冗	-15.3039
辐	-15.304
蕴	-15.3041
斤	-15.3042
惮	-15.3043
啻	-15.3044
劾	-15.3045
兜	-15.3046
倦	-15.3047
伎	-15.3048
藉	-15.3049
磋	-15.305
崭	-15.3051
妓	-15.3052
卑	-15.3053
跻	-15.3054
撼	-15.3055
憎	-15.3056
恼	-15.3057
夹	-15.3058
讳	-15.3059
姗	-15.306
阈	-15.3061
毋	-15.3062
槿	-15.3063
掣	-15.3064
尴	-15.3065
尬	-15.3066
酝	-15.3067
酋	-15.3068
肮	-15.3069
澄	-15.307
枢	-15.3071
忡	-15.3072
嘲	-15.3073
咄	-15.3074
澜	-15.3075
淆	-15.3076
汹	-15.3077
愉	-15.3078
郁	-15.3079
赦	-15.308
赎	-15.3081
衔	-15.3082
稼	-15.3083
攫	-15.3084
姻	-15.3085
濒	-15.3086
汰	-15.3087
屿	-15.3088
嚣	-15.3089
茫	-15.309
痴	-15.3091
溉	-15.3092
徘	-15.3093
徊	-15.3094
垃	-15.3095
圾	-15.3096
靖	-15.3097
霜	-15.3098
纺	-15.3099
岌	-15.31
尺	-15.3101
黯	-15.3102
裨	-15.3103
蔽	-15.3104
隶	-15.3105
阀	-15.3106
痹	-15.3107
涛	-15.3108
槛	-15.3109
峙	-15.311
侈	-15.3111
谍	-15.3112
怜	-15.3113
噩	-15.3114
赂	-15.3115
钓	-15.3116
睫	-15.3117
彰	-15.3118
婪	-15.3119
蹈	-15.312
渗	-15.3121
匮	-15.3122
憾	-15.3123
侣	-15.3124
谤	-15.3125
谐	-15.3126
诽	-15.3127
喻	-15.3128
缚	-15.3129
械	-15.313
奢	-15.3131
蓬	-15.3132
痪	-15.3133
姓	-15.3134
拘	-15.3135
慰	-15.3136
宙	-15.3137
徙	-15.3138
讼	-15.3139
苹	-15.3139
畴	-15.314
阐	-15.3141
揽	-15.3142
颁	-15.3143
汲	-15.3144
柬	-15.3145
惕	-15.3146
埔	-15.3147
壤	-15.3148
咨	-15.3149
邪	-15.315
腺	-15.3151
奠	-15.3152
辜	-15.3153
晤	-15.3154
讶	-15.3155
祉	-15.3156
抨	-15.3157
聪	-15.3158
囚	-15.3159
魅	-15.316
晋	-15.3161
慷	-15.3162
涯	-15.3163
卿	-15.3164
筛	-15.3165
睹	-15.3166
咎	-15.3167
绸	-15.3168
仔	-15.3169
骚	-15.317
飓	-15.3171
瞩	-15.3172
崇	-15.3173
缔	-15.3174
慑	-15.3175
涵	-15.3176
沮	-15.3177
妨	-15.3178
飙	-15.3179
豫	-15.318
孕	-15.3181
询	-15.3182
寿	-15.3183
凸	-15.3184
⁄	-15.3185
隘	-15.3186
迄	-15.3187
阱	-15.3188
匈	-15.3189
欺	-15.319
晰	-15.3191
疟	-15.3192
忆	-15.3193
肆	-15.3194
狭	-15.3195
谴	-15.3196
垄	-15.3197
殖	-15.3198
厉	-15.3199
剥	-15.32
遥	-15.3201
庇	-15.3202
综	-15.3203
胞	-15.3204
逻	-15.3205
摧	-15.3206
萄	-15.3207
牺	-15.3208
萎	-15.3209
孟	-15.321
践	-15.3211
巩	-15.3212
竭	-15.3213
拯	-15.3214
植	-15.3215
牲	-15.3216
坡	-15.3217
惩	-15.3218
僚	-15.3219
坛	-15.322
召	-15.3221
吁	-15.3222
裕	-15.3223
沫	-15.3224
膨	-15.3225
糕	-15.3226
汽	-15.3227
歧	-15.3228
秩	-15.3229
透	-15.323
脆	-15.3231
驱	-15.3232
旦	-15.3233
录	-15.3234
恢	-15.3235
框	-15.3236
崛	-15.3237
允	-15.3238
侵	-15.3239
络	-15.324
伙	-15.3241
童	-15.3242
谓	-15.3243
估	-15.3244
述	-15.3245
衡	-15.3246
扩	-15.3247
擅	-15.3247
础	-15.3248
哲	-15.3248
舆	-15.3248
央	-15.3249
渠	-15.3249
豁	-15.325
括	-15.325
腥	-15.325
逮	-15.325
慧	-15.3251
崖	-15.3251
甸	-15.3251
擎	-15.3251
仑	-15.3251
俑	-15.3251
襟	-15.3251
贸	-15.3251
衅	-15.3251
鸿	-15.3251
颈	-15.3252
厢	-15.3252
乎	-15.3252
辑	-15.3252
